<unk>	0
<s>	0
</s>	0
":"	-1.9442
type	-2.35638
"	-2.40137
","	-2.41942
value	-2.95093
"},{	-2.95962
children	-3.08664
},{	-3.50587
Load	-3.85155
Name	-3.87932
_	-4.04789
Str	-4.55036
]},	-4.5756
{"	-4.57567
,"	-4.88242
attr	-5.0263
Attribute	-5.02821
.	-5.04017
▁	-5.10177
Call	-5.11212
Store	-5.20819
Assign	-5.29301
n	-5.3134
alias	-5.33246
Import	-5.53684
body	-5.67013
\	-5.76539
s	-5.77866
From	-5.79072
Expr	-5.91656
list	-5.94434
/	-5.95646
keyword	-5.99016
decorator	-6.00658
Def	-6.01747
Param	-6.14348
Module	-6.1534
"}]	-6.17106
▁[{	-6.17377
args	-6.26139
result	-6.34991
Num	-6.36357
defaults	-6.36393
arguments	-6.37515
Function	-6.39138
":[2]	-6.40317
self	-6.44633
name	-6.68849
__	-6.72201
,	-6.7618
Return	-6.87728
List	-6.88567
":"__	-6.90298
-	-6.97822
▁the	-7.01483
object	-7.06855
":[6]	-7.09745
d	-7.10256
Class	-7.12345
":[4]	-7.13687
bases	-7.14856
:	-7.15277
template	-7.1531
id	-7.17312
django	-7.24232
.\	-7.26851
Tuple	-7.30065
test	-7.30786
▁::	-7.37759
":[12]	-7.41442
":[1,3	-7.44847
get	-7.47503
":"*	-7.49955
S	-7.51635
":[20,21]	-7.52103
":[10,11]	-7.52204
url	-7.54582
If	-7.55014
":[15,16]	-7.55073
T	-7.55807
2	-7.56956
":[26,27]	-7.57568
":[24]	-7.58433
os	-7.59529
t	-7.60709
path	-7.61029
Dict	-7.61444
":[31]	-7.62262
▁to	-7.65945
▁a	-7.67496
create	-7.73011
Subscript	-7.73314
x	-7.7589
c	-7.76262
r	-7.76674
Index	-7.79237
ing	-7.80761
2],	-7.80881
a	-7.81446
BinOp	-7.81472
▁for	-7.81834
version	-7.82815
models	-7.83595
er	-7.83643
ed	-7.83838
":[8]	-7.8431
":[19,22	-7.84741
":[14,17	-7.85957
True	-7.87036
f	-7.87703
":[5,7	-7.90388
attribute	-7.93159
e	-7.94504
▁of	-7.95059
1	-7.95475
py	-7.97279
P	-7.98467
shared	-7.98724
kernel	-7.99253
iff	-8.00183
sys	-8.00488
None	-8.00558
":[25,28,29	-8.00835
swgpy	-8.02493
stf	-8.0272
":[4,8,3	-8.02789
":[9,13,18,23,30	-8.02798
":[10]	-8.0371
m	-8.06052
C	-8.07896
data	-8.08657
main	-8.08727
b	-8.08999
i	-8.09808
y	-8.10687
p	-8.1178
":[7]	-8.12021
app	-8.1269
3	-8.15005
file	-8.15499
CompareEq	-8.16508
db	-8.18412
":"1	-8.18901
com	-8.18909
▁is	-8.19719
)	-8.21257
":[9]	-8.2208
":[5]	-8.22857
base	-8.23037
Print	-8.2313
Add	-8.26068
":[4,5]	-8.27147
":[11]	-8.28747
://	-8.28783
▁in	-8.29137
init	-8.29619
▁and	-8.29858
v	-8.30148
(	-8.30391
":"0	-8.30491
settings	-8.30675
":[14]	-8.31839
":[15]	-8.32227
":[2,3]	-8.32839
":[8,9]	-8.32989
setup	-8.33518
g	-8.33852
author	-8.3453
":[16,17]	-8.34837
w	-8.35709
M	-8.3586
▁:	-8.36008
'	-8.36139
":[16]	-8.3748
D	-8.38389
":[13]	-8.38743
I	-8.39152
":[23,24]	-8.40642
":[1,3,5	-8.4082
▁(	-8.41132
":[18]	-8.42401
request	-8.42586
future	-8.42823
":[1	-8.42852
admin	-8.43609
":[13,14]	-8.43976
A	-8.44453
":[19,20]	-8.44757
re	-8.45353
":[20]	-8.45764
":[17]	-8.46292
config	-8.47843
":[14,15]	-8.4797
to	-8.48057
":[28]	-8.48136
user	-8.48181
":[18,19]	-8.48338
Error	-8.4852
key	-8.49069
":[22,23]	-8.49414
":[12,13]	-8.49432
":"-1	-8.4998
":[17,18]	-8.49994
False	-8.5045
":[21]	-8.50613
":[19]	-8.50679
Test	-8.52117
":[6,7]	-8.52473
Pass	-8.52751
":[11,12]	-8.52971
":[25,26]	-8.53009
":[21,22]	-8.53177
k	-8.53618
":[30]	-8.53852
l	-8.54071
description	-8.54613
is	-8.54774
":[26]	-8.54854
":[22]	-8.55162
":"^	-8.55167
api	-8.55989
identifier	-8.56289
":[23]	-8.56722
E	-8.57454
B	-8.57512
core	-8.57706
":[32,33]	-8.57947
al	-8.58882
tangible	-8.59261
0	-8.5929
u	-8.59566
":[9,10]	-8.59768
L	-8.60362
4	-8.60752
views	-8.6077
":[32]	-8.61273
":[27,28]	-8.61285
▁Python	-8.61554
":[35]	-8.61648
":[25]	-8.61803
default	-8.62053
":[29,30]	-8.62065
h	-8.62673
all	-8.62693
5	-8.62797
html	-8.63037
<	-8.63068
Handler	-8.63441
in	-8.64705
":[24,25]	-8.64938
":[37]	-8.65166
":[27]	-8.66245
":[28,29]	-8.67114
":[30,31]	-8.67146
":[31,32]	-8.67573
http	-8.68382
":[29]	-8.68492
utils	-8.68515
F	-8.69208
G	-8.6943
":[39]	-8.69635
":[33,34]	-8.69767
index	-8.69884
":[34]	-8.70004
model	-8.70139
Mod	-8.71826
view	-8.71826
":[35,36]	-8.71908
o	-8.72177
unittest	-8.72481
conf	-8.72705
urls	-8.72822
For	-8.73096
TestCase	-8.73269
":[7,8]	-8.73766
":[34,35]	-8.74172
":[33]	-8.74537
":[36]	-8.74677
unicode	-8.75172
run	-8.75202
migrations	-8.75366
str	-8.7555
>	-8.76863
packages	-8.77011
":[38]	-8.77595
":[38,39]	-8.77698
client	-8.77702
":[36,37]	-8.78788
":[42]	-8.78971
or	-8.79282
":[39,40]	-8.79395
angible	-8.79703
Field	-8.79997
":[40,41]	-8.80029
":[37,38]	-8.80716
6	-8.80786
set	-8.81257
":[41]	-8.81262
contrib	-8.81548
":[41,42]	-8.81644
import	-8.82242
add	-8.82379
":[43]	-8.83341
handlers	-8.83774
":[40]	-8.83867
kwargs	-8.84429
▁-	-8.84634
":[44]	-8.8504
Exception	-8.85112
":[44,45]	-8.85716
":[45]	-8.85818
H	-8.87061
tests	-8.8713
▁be	-8.87251
":[47,48]	-8.87865
as	-8.8788
":[47]	-8.88763
":[46]	-8.89021
":[1,3,5,7	-8.90008
":[43,44]	-8.90024
▁that	-8.9026
▁with	-8.90632
Base	-8.90785
string	-8.91077
R	-8.91314
":[42,43]	-8.91399
▁'	-8.914
\\	-8.91969
email	-8.92487
▁Language	-8.93071
▁License	-8.93134
info	-8.93222
lib	-8.93687
":[45,46]	-8.93771
":[51]	-8.9461
code	-8.95296
":[48]	-8.95511
▁%	-8.95658
Except	-8.95823
":[49,50]	-8.9599
7	-8.96578
":[46,47]	-8.96583
▁=	-8.96907
]	-8.96917
Model	-8.97408
register	-8.97485
▁\"	-8.97589
N	-8.97858
":[53]	-8.98541
time	-8.98612
":[50]	-8.98719
on	-8.98942
es	-8.98967
Programming	-8.9905
":[49]	-8.99133
text	-8.99301
ore	-8.99482
literals	-8.99679
":[50,51]	-8.99869
Y	-9.00256
z	-9.00527
open	-9.00654
":[48,49]	-9.01257
number	-9.01562
message	-9.01937
":[52]	-9.02264
json	-9.02293
":[52,53]	-9.02334
ryExcept	-9.02477
doc	-9.03395
":[54]	-9.0421
Assert	-9.04971
":[55]	-9.05478
":[51,52]	-9.06249
response	-9.06668
V	-9.07533
j	-9.07537
▁or	-9.07723
▁on	-9.0794
8	-9.07942
item	-9.0831
patterns	-9.08532
read	-9.0873
line	-9.08913
join	-9.08989
▁this	-9.09943
":[55,56]	-9.10604
)\	-9.10612
":[56]	-9.10707
include	-9.11217
auth	-9.1142
lse	-9.11602
command	-9.11686
":[5,6]	-9.11897
static	-9.12376
In	-9.12412
":[53,54]	-9.12455
module	-9.12532
":[57]	-9.12559
dir	-9.12581
python	-9.12616
▁by	-9.13081
":[62]	-9.13211
project	-9.13537
":[57,58]	-9.13862
space	-9.1389
":[54,55]	-9.13921
":[56,57]	-9.14067
":[60]	-9.14275
obj	-9.14356
class	-9.14881
":[58]	-9.15303
:\	-9.16083
▁not	-9.16402
table	-9.1663
▁file	-9.17029
":[59]	-9.17229
▁an	-9.17447
▁from	-9.18744
ly	-9.1876
log	-9.18769
O	-9.19001
find	-9.19483
license	-9.19858
field	-9.20057
=	-9.20222
from	-9.20331
":[60,61]	-9.21187
View	-9.21502
":[64]	-9.21733
el	-9.22096
Not	-9.22343
User	-9.22804
Migration	-9.22882
site	-9.23153
kwarg	-9.24772
format	-9.25289
an	-9.25546
ext	-9.25748
X	-9.26337
":[61]	-9.26713
":[61,62]	-9.26748
pattern	-9.26912
logging	-9.27004
en	-9.27017
server	-9.2708
":[59,60]	-9.27321
op	-9.27398
github	-9.27522
{	-9.27728
Raise	-9.27862
max	-9.28378
org	-9.2909
ic	-9.29335
":[58,59]	-9.29986
":[66]	-9.30043
dict	-9.30478
W	-9.30619
urlpatterns	-9.30963
ar	-9.31187
fields	-9.31644
param	-9.31913
":[64,65	-9.32243
absolute	-9.32855
print	-9.32953
U	-9.33285
":[63,64]	-9.33367
install	-9.33412
https	-9.3392
Command	-9.33999
context	-9.34162
":"2	-9.34194
long	-9.34542
▁The	-9.35315
":[3]	-9.3539
int	-9.35913
":[67]	-9.36038
*	-9.36206
options	-9.36214
":[65,66	-9.36254
":[63]	-9.36885
9	-9.37046
":[65]	-9.37477
at	-9.38252
q	-9.38484
":[62,63]	-9.38613
ip	-9.38918
▁<	-9.39353
setuptools	-9.39357
help	-9.40127
K	-9.40363
`	-9.40907
}	-9.41688
":[71]	-9.41701
▁module	-9.42444
ation	-9.42612
``	-9.42736
8],	-9.43006
":[66,67]	-9.43042
▁as	-9.43861
io	-9.43937
sa	-9.44149
":[68]	-9.44267
[	-9.44367
":[67,68]	-9.44448
3],	-9.44645
UnaryOp	-9.44913
":[1,3,6	-9.44965
requires	-9.45026
":[69]	-9.45156
ch	-9.45256
status	-9.45698
":[68,69]	-9.45703
ro	-9.45795
▁A	-9.45959
6],	-9.46574
package	-9.46579
▁it	-9.46924
style	-9.47452
,38]	-9.47663
load	-9.47881
function	-9.48232
build	-9.4827
super	-9.4859
File	-9.48624
4],	-9.4883
":[15,18	-9.48831
":"%	-9.48843
":[70]	-9.49059
source	-9.50781
ion	-9.51037
update	-9.51136
":[71,72	-9.51933
le	-9.52059
This	-9.521
":[69,70]	-9.5221
1],	-9.52561
length	-9.52626
map	-9.52819
it	-9.53343
date	-9.53621
,36]	-9.53778
5],	-9.54016
env	-9.54558
flask	-9.54632
▁S	-9.54869
":[72]	-9.54983
application	-9.55051
%	-9.55067
un	-9.55119
port	-9.55162
,39]	-9.55285
#	-9.55446
RE	-9.55782
":[13,16	-9.55832
0],	-9.55953
de	-9.56016
Topic	-9.56022
,33]	-9.56597
9],	-9.56777
7],	-9.56779
,44]	-9.56793
output	-9.56828
new	-9.56872
start	-9.5705
▁``	-9.57677
,40]	-9.58179
":[73,74	-9.58433
no	-9.58546
error	-9.58763
":[70,71]	-9.58763
ship	-9.58817
▁use	-9.5899
With	-9.59134
len	-9.59136
filter	-9.59271
st	-9.59461
parse	-9.59467
":[11,14	-9.59516
able	-9.59519
,35]	-9.5956
":[73]	-9.59744
Type	-9.59754
":[74]	-9.5985
sphinx	-9.6032
vararg	-9.60414
":[75]	-9.60431
▁are	-9.60447
write	-9.60797
▁\	-9.60846
objects	-9.60937
":[17,20	-9.61052
out	-9.61194
Re	-9.61302
,45]	-9.61567
,43]	-9.61665
VERSION	-9.61861
2.	-9.61884
token	-9.62132
content	-9.62156
Admin	-9.62283
ur	-9.62482
,\	-9.62541
":[72,73]	-9.62579
Form	-9.62712
,42]	-9.62841
filename	-9.62998
check	-9.6355
argv	-9.63577
,37]	-9.63774
,41]	-9.63823
mobile	-9.63864
":[21,24	-9.63865
manager	-9.64009
,31]	-9.64038
,34]	-9.64201
dirname	-9.64812
>\	-9.65126
NAME	-9.65566
se	-9.65892
":[25,28	-9.65979
":[24,27	-9.66013
":[74,75	-9.66275
parser	-9.66319
ID	-9.66994
▁you	-9.6709
func	-9.67175
level	-9.672
":[26,29	-9.67251
title	-9.6771
10	-9.67904
form	-9.67973
":"9	-9.67992
example	-9.68082
":[20,23	-9.68103
service	-9.68121
":[76]	-9.68139
,32]	-9.68212
foo	-9.68251
":[22,25	-9.68377
,26]	-9.68381
":[18,21	-9.68778
▁class	-9.6901
":[13,15	-9.69015
,50]	-9.69088
,48]	-9.69178
datetime	-9.69188
,52]	-9.69287
,47]	-9.69329
auto	-9.69454
,51]	-9.69654
":[1,4	-9.6976
post	-9.70055
▁if	-9.70129
Client	-9.7054
ad	-9.70763
for	-9.70783
11	-9.70968
":[7	-9.71343
us	-9.71412
":[28,31	-9.71449
action	-9.71482
":[76,77	-9.71487
templates	-9.71556
,49]	-9.72138
me	-9.72166
":[78]	-9.72191
co	-9.72212
render	-9.72235
im	-9.72245
URL	-9.72349
":[31,34	-9.72387
assert	-9.72436
password	-9.72733
▁`	-9.72783
reature	-9.73106
":[8,11	-9.73164
forms	-9.73853
,57]	-9.7386
,27]	-9.73894
":[16,19	-9.73992
host	-9.7413
',	-9.74204
":[77]	-9.74241
▁[	-9.74281
▁>>>	-9.74343
web	-9.74621
ra	-9.74647
":[30,33	-9.74712
ImportError	-9.75234
64	-9.75479
apps	-9.75529
ri	-9.75578
,28]	-9.75627
BoolOp	-9.75783
▁will	-9.76047
,55]	-9.76181
,30]	-9.76205
AugAssign	-9.76271
,63]	-9.76764
copyright	-9.76778
":[29,32	-9.76907
with	-9.76983
suite	-9.77183
,60]	-9.77234
git	-9.77303
append	-9.77406
":[12,15	-9.77519
execute	-9.77612
":[7,10	-9.77662
":[38,41	-9.77717
":[9,12	-9.77737
":[27,30	-9.77783
,29]	-9.77792
Config	-9.7783
CompareI	-9.78141
Resource	-9.78185
environ	-9.78261
License	-9.78387
page	-9.78396
group	-9.78493
one	-9.78497
my	-9.78567
":[33,36	-9.78594
,53]	-9.78749
image	-9.78904
":[75,76]	-9.79316
ter	-9.79506
=\"	-9.79517
":[10,13	-9.79612
,61]	-9.79685
":[1,3,5,7,9	-9.80057
▁Django	-9.80059
,46]	-9.80202
":[34,37	-9.80472
task	-9.80504
login	-9.80584
>>>	-9.80677
":[32,35	-9.8076
net	-9.80823
":[80]	-9.8089
count	-9.80966
call	-9.81106
":[23,26	-9.81156
operations	-9.81216
,56]	-9.81229
":[79]	-9.81342
▁can	-9.8149
management	-9.81713
,25]	-9.81727
,59]	-9.81736
,54]	-9.81825
Plugin	-9.8186
classifiers	-9.81878
msg	-9.82083
node	-9.82447
,65]	-9.82756
)/	-9.82781
cls	-9.82803
,58]	-9.82993
sub	-9.83025
▁2	-9.83308
▁data	-9.83412
man	-9.83664
resource	-9.83733
tag	-9.83879
mo	-9.84025
tools	-9.84415
,67]	-9.84417
ive	-9.84429
instance	-9.84692
label	-9.84699
Object	-9.85547
common	-9.85593
▁System	-9.86151
rst	-9.86273
":[79,80	-9.86508
":"10	-9.86639
session	-9.86763
min	-9.86772
":[15,17	-9.86833
www	-9.86885
util	-9.86902
dependencies	-9.86991
li	-9.87103
12	-9.87227
▁This	-9.87229
and	-9.87377
wsgi	-9.87554
":[78,79]	-9.87892
zip	-9.8816
size	-9.88268
":[6,9	-9.88333
delete	-9.88464
App	-9.88566
":[35,38	-9.88615
,23]	-9.88691
▁all	-9.88708
root	-9.88844
plugin	-9.88844
ntended	-9.88897
":[80,81	-9.88923
":[10,12	-9.89017
Manager	-9.89029
search	-9.89046
up	-9.89096
Request	-9.89187
":[77,78]	-9.89265
Service	-9.895
▁name	-9.8978
":[81]	-9.8992
schematic	-9.89956
":[39,42	-9.90043
":"3	-9.90058
,64]	-9.90109
":[36,39	-9.90141
,70]	-9.90302
Tests	-9.90341
event	-9.90469
":[43,46	-9.90471
ER	-9.90483
16	-9.90667
end	-9.90753
,22]	-9.90896
link	-9.90922
":[40,43	-9.91118
,24]	-9.91472
1.	-9.9154
il	-9.91772
":[37,40	-9.9204
username	-9.92071
ul	-9.92102
con	-9.92327
▁import	-9.92349
":[12,14	-9.92411
,73]	-9.92468
input	-9.92589
if	-9.92666
▁Software	-9.92708
▁test	-9.92925
Data	-9.93016
()	-9.93115
▁application	-9.93275
et	-9.93518
building	-9.93575
option	-9.93584
do	-9.93662
CharField	-9.93788
bar	-9.93843
▁Audience	-9.9399
by	-9.94313
,62]	-9.94807
▁more	-9.95009
ent	-9.95043
Sub	-9.95053
,77]	-9.95089
":[82]	-9.95153
":[8	-9.95365
weapon	-9.95481
,71]	-9.95504
draft	-9.95515
▁3	-9.95546
debug	-9.9557
Slice	-9.95866
,69]	-9.95899
query	-9.9662
▁used	-9.96648
</	-9.96779
cache	-9.96793
PhoneNumber	-9.96855
NA	-9.96944
:%	-9.96985
,66]	-9.97001
":[81,82]	-9.97068
local	-9.97119
,74]	-9.97148
▁*	-9.97192
theme	-9.97292
":[83]	-9.97314
extensions	-9.97701
▁Documentation	-9.97857
/(	-9.97973
logger	-9.98024
um	-9.98195
18	-9.98466
possible	-9.98633
ta	-9.98956
num	-9.99346
":[82,83	-9.99541
,21]	-9.99595
Message	-9.99811
20	-10.0016
":[41,44	-10.0027
Desc	-10.0037
▁see	-10.0037
method	-10.0038
,68]	-10.0046
,34	-10.0049
API	-10.0058
pre	-10.0059
":[42,45	-10.0066
":[84]	-10.0068
":[1,3,5,7,9,11	-10.0094
np	-10.0106
safe	-10.0114
Or	-10.0124
xml	-10.0143
,75]	-10.0152
mod	-10.0194
HTTP	-10.0259
":[46,49	-10.0261
ate	-10.0274
verbose	-10.0283
th	-10.0284
range	-10.0285
match	-10.0316
▁C	-10.0318
":[83,84	-10.0321
comprehension	-10.0329
params	-10.0331
KEY	-10.0343
":[48,51	-10.0371
▁1	-10.0373
And	-10.0374
▁which	-10.0376
save	-10.0382
▁L	-10.039
ant	-10.0408
,72]	-10.0433
,17]	-10.0448
":[44,47	-10.0454
assertEqual	-10.0456
":[14,16	-10.0489
npc	-10.0495
component	-10.0503
":[9,11]	-10.0527
mock	-10.0544
,18]	-10.0546
▁object	-10.0553
▁Approved	-10.0564
▁OSI	-10.0566
random	-10.0574
stream	-10.0585
lo	-10.0592
('	-10.0595
Image	-10.0603
master	-10.0617
make	-10.0628
▁under	-10.0664
Mult	-10.0664
sh	-10.067
":[49,52	-10.0681
README	-10.0682
lair	-10.0687
Server	-10.0705
▁at	-10.0718
')	-10.074
":[45,48	-10.0741
":"8	-10.0743
am	-10.075
src	-10.0757
revision	-10.079
the	-10.0798
,76]	-10.0807
unknown	-10.0821
":[85,86	-10.0827
DEBUG	-10.083
la	-10.0845
rest	-10.086
Mixin	-10.0864
exit	-10.0892
":[47,50	-10.0899
▁should	-10.0901
Column	-10.0905
CompareNot	-10.0908
▁OR	-10.0921
deed	-10.0932
column	-10.0957
engine	-10.0962
":[87]	-10.0962
,23	-10.0964
pe	-10.0973
13	-10.0978
ce	-10.1006
De	-10.1028
ui	-10.1035
split	-10.1043
driver	-10.105
":[86]	-10.1054
process	-10.1076
target	-10.1078
dev	-10.1079
store	-10.1088
prefix	-10.1108
,30	-10.112
DB	-10.1124
":[51,54	-10.1139
":[7,9]	-10.1183
national	-10.1197
ve	-10.1203
▁Developers	-10.1218
,78]	-10.1225
String	-10.123
,82]	-10.1234
Flask	-10.1244
,81]	-10.1246
ob	-10.1297
slug	-10.1298
,79]	-10.1303
te	-10.1307
middleware	-10.1319
DIR	-10.1322
handler	-10.1328
32	-10.1337
14	-10.1342
":[50,53	-10.1344
poi	-10.1356
domain	-10.1366
google	-10.1367
,20]	-10.1373
show	-10.14
handle	-10.1402
Set	-10.1411
connect	-10.1419
,33	-10.1428
Static	-10.1461
▁P	-10.1471
ex	-10.1473
cmd	-10.148
▁function	-10.1484
IN	-10.15
tex	-10.1523
ig	-10.1529
ator	-10.1553
":[85]	-10.1557
bin	-10.1565
Py	-10.1612
script	-10.1618
backends	-10.1635
":[2,3,4]	-10.1638
Meta	-10.1638
Operating	-10.1646
entry	-10.1658
simple	-10.1662
Development	-10.1669
,83]	-10.1675
expected	-10.1677
":[11,13]	-10.168
use	-10.1681
getattr	-10.1691
modules	-10.1691
exclude	-10.1701
▁string	-10.171
01	-10.1731
▁Status	-10.1741
▁when	-10.1744
No	-10.1744
ca	-10.1754
24	-10.1782
box	-10.1791
current	-10.1826
":[88]	-10.1832
,19]	-10.1839
connection	-10.1839
old	-10.1843
Action	-10.1863
▁code	-10.1916
:`	-10.1918
Key	-10.1922
,80]	-10.1923
/%	-10.1924
":[52,55	-10.1927
▁may	-10.1936
items	-10.1937
numpy	-10.1945
male	-10.1971
,15	-10.1987
":[84,85]	-10.1994
,17	-10.1997
Text	-10.2
documents	-10.2028
tr	-10.2029
To	-10.2054
":[56,59	-10.206
ol	-10.2062
plot	-10.2079
be	-10.2081
,15]	-10.2087
gmail	-10.2093
ity	-10.2144
":[53,56	-10.2145
tree	-10.215
schema	-10.2172
▁your	-10.2182
ED	-10.2194
send	-10.2198
The	-10.221
,26	-10.2216
▁do	-10.2222
":[54,57	-10.2225
>\\	-10.2257
scripts	-10.2259
":[9	-10.2269
storage	-10.2274
js	-10.2276
▁have	-10.2287
▁project	-10.2289
":[12,18	-10.2315
":[88,89	-10.2336
gen	-10.2338
meta	-10.234
color	-10.2345
80	-10.2346
":[86,87]	-10.2349
":[16,18	-10.2349
profile	-10.2352
pytest	-10.2363
,35	-10.2364
abspath	-10.2365
▁re	-10.241
Factory	-10.2415
":[55,58	-10.2415
,84]	-10.2432
document	-10.2438
FORMAT	-10.2446
3.	-10.2449
twisted	-10.2457
order	-10.2489
▁BSD	-10.2503
,16]	-10.256
▁using	-10.2569
graph	-10.2576
cli	-10.2578
per	-10.2599
()\	-10.2622
required	-10.2633
▁any	-10.2635
\":	-10.265
sp	-10.2656
factory	-10.2673
▁list	-10.2673
Group	-10.268
▁--	-10.2701
val	-10.2701
last	-10.2725
Node	-10.2726
row	-10.2726
not	-10.2729
▁0	-10.273
ressed	-10.2737
ap	-10.2751
rate	-10.2751
bo	-10.2752
Get	-10.2756
Simple	-10.2765
Id	-10.2775
ers	-10.2784
release	-10.2789
null	-10.279
translation	-10.2793
Event	-10.2797
plugins	-10.2813
▁API	-10.2824
}\	-10.2846
,87]	-10.2849
":[1,4,6	-10.2855
Delete	-10.2869
division	-10.2885
Response	-10.2901
files	-10.2912
po	-10.2916
var	-10.2932
,86]	-10.2947
display	-10.2948
ast	-10.2959
":[87,88	-10.2963
next	-10.2984
MODULE	-10.2998
▁example	-10.3022
50	-10.3025
state	-10.3048
ll	-10.3056
▁http	-10.3066
Provider	-10.3073
▁user	-10.3076
components	-10.3083
latex	-10.3086
wearables	-10.309
Environment	-10.3095
mk	-10.3113
txt	-10.3119
0.0	-10.3128
resources	-10.3137
insert	-10.3157
CompareGt	-10.3167
":[59,62	-10.3175
▁#	-10.3198
▁s	-10.3204
-%	-10.3216
cloud	-10.3216
docs	-10.3233
":[14,19	-10.3244
system	-10.3244
19	-10.3253
address	-10.3254
SETTINGS	-10.3255
fr	-10.3255
uri	-10.3275
now	-10.3279
structure	-10.328
res	-10.3293
cr	-10.3294
ut	-10.3321
▁B	-10.3323
arg	-10.3326
":[89]	-10.3327
CompareIs	-10.3337
AS	-10.3369
,36	-10.338
distutils	-10.3398
,85]	-10.3402
exceptions	-10.3413
ay	-10.3414
,25	-10.3423
▁4	-10.3429
":[11	-10.3432
":[1,3,5,8	-10.3437
▁server	-10.3439
of	-10.3443
Item	-10.3477
▁version	-10.3486
ize	-10.3497
ref	-10.3554
TYPE	-10.3609
▁OS	-10.3618
AR	-10.3623
MIT	-10.3626
▁return	-10.3626
oauth	-10.365
lazy	-10.3676
":[57,60	-10.3687
ROOT	-10.3691
md	-10.3696
back	-10.371
▁one	-10.3727
ListComp	-10.3732
Page	-10.3741
ho	-10.3753
":[89,90	-10.3766
":[4,5,6]	-10.3791
▁T	-10.3812
▁M	-10.3819
BaseCommand	-10.3831
sql	-10.3836
suffix	-10.3847
pages	-10.3871
,32	-10.3878
":[90]	-10.3881
demo	-10.3889
DEFAULT	-10.3889
":[60,63	-10.3911
,88]	-10.3913
nose	-10.393
":[58,61	-10.3935
hello	-10.3949
armor	-10.3961
patch	-10.3963
socket	-10.3967
▁details	-10.3982
":[19,21	-10.3985
,39	-10.3988
":[62,65	-10.3993
requests	-10.401
AL	-10.4019
mp	-10.4024
ga	-10.4037
spec	-10.4046
▁method	-10.406
,45	-10.4066
ANGO	-10.4096
SON	-10.4101
ci	-10.4118
ok	-10.4118
platform	-10.4129
.%	-10.4134
▁str	-10.4138
est	-10.4142
ie	-10.4155
sqlalchemy	-10.4164
":"100	-10.4182
▁H	-10.42
":[91]	-10.4201
":[2,4,	-10.4204
nThe	-10.4204
15	-10.4226
require	-10.4228
▁OF	-10.4239
,89]	-10.4247
▁run	-10.4247
parent	-10.4254
00	-10.4257
Un	-10.4262
ge	-10.427
,90]	-10.4272
pl	-10.4277
Application	-10.4277
download	-10.4281
,38	-10.4284
ver	-10.429
Lambda	-10.4309
PATH	-10.4315
hash	-10.4327
record	-10.4339
mark	-10.4341
framework	-10.4345
":[63,66	-10.435
":[20,22	-10.4359
short	-10.4381
job	-10.439
▁request	-10.4392
▁Independent	-10.4392
messages	-10.4401
Connection	-10.4416
,40	-10.4432
sqlite	-10.4479
▁package	-10.4479
compute	-10.4481
mail	-10.4521
":[61,64	-10.4526
":[66,69	-10.4528
reverse	-10.4566
return	-10.4577
ng	-10.4619
setUp	-10.4619
ha	-10.4638
IP	-10.4639
Filter	-10.4641
openstack	-10.4664
pi	-10.467
ES	-10.4679
'\	-10.4686
":[1,3,6,8	-10.4691
,41	-10.4693
ir	-10.4703
▁f	-10.4718
ING	-10.4718
":[90,91]	-10.4729
block	-10.4749
ee	-10.4756
>=	-10.4758
ist	-10.4767
stdout	-10.4774
::	-10.4794
▁line	-10.4815
warnings	-10.4826
droid	-10.4831
▁G	-10.4835
access	-10.4836
any	-10.4838
pa	-10.486
":"0.1	-10.4867
tags	-10.4872
has	-10.4875
ma	-10.4879
,43	-10.4885
go	-10.4889
em	-10.4894
,94]	-10.4897
close	-10.491
generic	-10.4923
61	-10.4924
secret	-10.4934
Task	-10.4935
red	-10.4966
created	-10.4967
Integer	-10.4971
▁Development	-10.4974
dashboard	-10.4976
":[18,20	-10.4985
Table	-10.5014
Python	-10.502
Django	-10.5026
ac	-10.5032
strip	-10.5034
▁{	-10.5035
unit	-10.504
04	-10.5047
ak	-10.5052
ian	-10.5057
▁D	-10.5088
TEST	-10.5089
":[21,23	-10.51
OS	-10.5108
,27	-10.5111
▁F	-10.5112
console	-10.5112
pygments	-10.5119
runner	-10.5139
,13]	-10.5146
IS	-10.5151
six	-10.5186
]\	-10.5187
":[92]	-10.5211
Version	-10.5215
he	-10.5221
86	-10.5234
hi	-10.524
,91]	-10.5241
▁b	-10.525
isinstance	-10.5268
ot	-10.5271
,31	-10.5279
▁end	-10.5289
":"--	-10.5292
AN	-10.5294
,92]	-10.5295
basic	-10.5298
rs	-10.5299
":[7,9	-10.531
2_	-10.5314
,44	-10.5328
human	-10.5342
basename	-10.5343
metadata	-10.5347
Alter	-10.538
fs	-10.538
report	-10.5386
container	-10.539
ub	-10.5394
ting	-10.5396
▁set	-10.5402
backend	-10.5408
sum	-10.5415
Create	-10.5415
location	-10.5417
bit	-10.5429
":[8,13	-10.5432
raw	-10.5443
ck	-10.5445
users	-10.546
home	-10.5471
Hello	-10.5484
oo	-10.5497
hair	-10.5518
US	-10.5538
▁information	-10.5542
ry	-10.5566
▁time	-10.5566
pk	-10.5573
":[64,67	-10.5578
ST	-10.559
":"4	-10.559
,93]	-10.5598
cat	-10.5609
":[16,21	-10.5613
":[91,92	-10.5619
2015	-10.5634
bytes	-10.5636
":[92,93	-10.5645
▁p	-10.565
60	-10.5675
ab	-10.5685
▁message	-10.5688
da	-10.5701
,50	-10.5721
PORT	-10.5734
clothing	-10.5742
02	-10.5746
":[65,68	-10.5748
▁c	-10.5751
ment	-10.5761
def	-10.5776
first	-10.5776
upload	-10.5789
,57	-10.5796
tion	-10.5802
ec	-10.5807
helper	-10.5813
setdefault	-10.5816
▁only	-10.5816
29	-10.5821
":"5	-10.5826
ko	-10.5832
ify	-10.5836
70	-10.5853
ni	-10.5854
▁command	-10.5865
75	-10.5904
Auto	-10.5906
▁tests	-10.5907
▁has	-10.591
":[4,7	-10.5917
ms	-10.592
":[22,24	-10.5926
▁MIT	-10.5941
widget	-10.5949
Open	-10.595
,22	-10.5955
,21	-10.5957
custom	-10.596
headers	-10.5972
Template	-10.5973
ia	-10.5976
encode	-10.5983
mode	-10.6023
Eq	-10.6029
":[68,71	-10.6031
account	-10.6036
ti	-10.6038
,51	-10.6046
son	-10.6051
ary	-10.6081
Backend	-10.6098
initial	-10.611
timeout	-10.6117
2,	-10.6132
▁default	-10.6137
vi	-10.6152
DE	-10.6164
blank	-10.6167
▁call	-10.6168
namespace	-10.617
":[67,70	-10.617
change	-10.6175
▁error	-10.6183
66	-10.6186
detail	-10.6202
":[1,3,7	-10.6203
Default	-10.6211
▁app	-10.6211
redirect	-10.6218
▁given	-10.6237
case	-10.6237
":[18,23	-10.6239
1,	-10.6246
Int	-10.6257
...	-10.6259
APPS	-10.6261
remove	-10.6278
Exp	-10.6282
property	-10.6291
,52	-10.6295
PRO	-10.6297
42	-10.63
▁key	-10.6315
":[5,8	-10.6323
network	-10.6324
":[94]	-10.6326
▁library	-10.6341
):\	-10.6347
conn	-10.6355
subprocess	-10.6366
Widget	-10.6366
Value	-10.6366
":[70,73	-10.6368
pt	-10.638
":[26,28	-10.6382
active	-10.6383
▁WSGI	-10.6386
media	-10.6388
▁instance	-10.6389
HttpResponse	-10.6394
na	-10.6397
reactor	-10.6409
shell	-10.6422
df	-10.643
queue	-10.6442
generate	-10.6446
points	-10.6451
ns	-10.6464
thread	-10.6472
proxy	-10.6497
":[17,22	-10.6503
":[11,13	-10.6514
Library	-10.6518
ess	-10.6531
float	-10.6549
":[24,26	-10.6554
provider	-10.6564
,37	-10.6572
ba	-10.6579
localhost	-10.6585
▁python	-10.6586
":[94,95	-10.6597
region	-10.6607
Middleware	-10.661
Check	-10.6615
win	-10.6618
76	-10.6619
While	-10.6627
ical	-10.6639
route	-10.6665
keys	-10.6665
Token	-10.6673
":[10	-10.6674
▁no	-10.6681
,67	-10.6683
Building	-10.6695
redis	-10.67
ru	-10.671
":[15,20	-10.6712
ugettext	-10.6712
CompareLt	-10.6714
support	-10.6716
ds	-10.6718
LE	-10.6719
SECRET	-10.672
getLogger	-10.6727
▁Returns	-10.6729
":[12,17	-10.673
OR	-10.6732
pet	-10.6743
My	-10.6749
ice	-10.676
vm	-10.6762
▁new	-10.6762
▁we	-10.6775
":[19,24	-10.6783
repo	-10.6785
28	-10.6785
callback	-10.6786
stats	-10.6789
ECT	-10.6791
testing	-10.6802
drop	-10.6805
loot	-10.6805
sample	-10.6808
general	-10.6811
stderr	-10.6813
cfg	-10.6813
":[93]	-10.6821
":[21	-10.6823
manual	-10.6831
down	-10.6838
Log	-10.6841
03	-10.6852
actions	-10.6855
05	-10.686
ea	-10.6861
light	-10.6865
":[13	-10.6869
▁2.7	-10.6874
rt	-10.6876
USER	-10.6879
▁copy	-10.6884
ff	-10.6888
":"200	-10.689
word	-10.6893
stack	-10.6895
":[20,25	-10.6899
col	-10.6906
":[23,25	-10.6908
han	-10.6919
Div	-10.6921
▁client	-10.6927
,48	-10.6931
pkg	-10.6937
,47	-10.6939
▁Get	-10.6953
top	-10.6964
product	-10.6991
FILE	-10.7001
":[15	-10.7013
ret	-10.7024
ies	-10.7025
window	-10.7031
bot	-10.7032
protocol	-10.7032
clean	-10.7037
-8	-10.707
17	-10.7072
--	-10.7077
":"^(	-10.7082
▁files	-10.7094
ax	-10.7099
":[13,18	-10.7106
ell	-10.7119
compile	-10.7129
cc	-10.7134
Invalid	-10.7143
NO	-10.7166
cap	-10.717
":[10,15	-10.7175
statement	-10.7197
,14]	-10.721
OAuth	-10.7214
ine	-10.7215
":[93,94]	-10.722
▁but	-10.7229
▁Web	-10.723
":[71,74	-10.7234
force	-10.7236
der	-10.7237
▁I	-10.7239
nt	-10.7239
Con	-10.724
==	-10.7243
ValueError	-10.7245
Serializer	-10.7245
,98]	-10.7261
female	-10.7265
replace	-10.7267
limit	-10.7267
":[17,19]	-10.7274
Site	-10.7274
▁number	-10.7276
channel	-10.7285
Instance	-10.7286
▁int	-10.7293
":[25,27	-10.7294
encoding	-10.7294
extra	-10.7301
▁2.0	-10.7301
tasks	-10.7318
▁E	-10.7323
cl	-10.7324
INSTALLED	-10.7326
edit	-10.735
equal	-10.7359
exc	-10.7359
ence	-10.7378
doctest	-10.7378
AppConfig	-10.7384
opt	-10.7387
22	-10.7387
sleep	-10.7388
Del	-10.7398
Ro	-10.7405
":[69,72	-10.7407
complete	-10.7417
sign	-10.7421
cd	-10.7427
":[72,75	-10.743
cluster	-10.744
▁Libraries	-10.7443
si	-10.7446
▁{\	-10.7454
ml	-10.7461
tmp	-10.7473
crafted	-10.7478
names	-10.749
,54	-10.7494
configure	-10.7503
":[11,15	-10.7525
Post	-10.7531
▁ANY	-10.7534
▁here	-10.7535
player	-10.754
su	-10.754
exp	-10.7541
ust	-10.7548
_01.	-10.7557
sha	-10.7564
Number	-10.7577
Document	-10.7578
endpoint	-10.7594
▁does	-10.7599
commands	-10.7614
":[95]	-10.7614
editor	-10.7627
Code	-10.7631
,95]	-10.7639
od	-10.7651
":[73,76	-10.766
array	-10.768
resp	-10.7682
ts	-10.7687
▁required	-10.7694
fn	-10.7702
public	-10.7705
▁THE	-10.7709
Profile	-10.7719
mu	-10.772
multi	-10.7726
Controller	-10.7731
30	-10.7742
loader	-10.7747
Project	-10.7751
lex	-10.7751
elements	-10.7755
USE	-10.7765
\")	-10.7769
,65	-10.7771
▁K	-10.7796
%(	-10.7805
▁interface	-10.781
BSD	-10.781
features	-10.7813
33	-10.7821
":[6,11	-10.7821
▁IS	-10.7825
dispatch	-10.784
='	-10.7846
Context	-10.7851
SI	-10.7853
Storage	-10.7854
gr	-10.7859
repr	-10.7867
Parser	-10.7877
ill	-10.7895
,63	-10.7905
Time	-10.7908
,60	-10.7914
NotImplemented	-10.7919
":[11,16	-10.7926
▁path	-10.7927
Framework	-10.7932
▁URL	-10.7953
":[25,30	-10.7975
Path	-10.7976
,74	-10.7981
yaml	-10.7985
point	-10.7986
free	-10.7993
ile	-10.8011
signal	-10.8014
,62	-10.8021
results	-10.8024
ty	-10.8037
ne	-10.8049
▁x	-10.8056
Mock	-10.8065
▁so	-10.8082
0.2	-10.8091
copy	-10.8095
▁specific	-10.8096
":[9,11	-10.8096
err	-10.8097
ag	-10.8121
resolver	-10.8124
08	-10.813
Web	-10.814
empty	-10.8144
,71	-10.8149
09	-10.8152
Auth	-10.8153
upgrade	-10.8161
Extension	-10.817
req	-10.8173
,49	-10.818
▁It	-10.8183
,97]	-10.8185
UI	-10.8188
One	-10.8189
Abstract	-10.8193
0.5	-10.8204
sc	-10.8205
dist	-10.8207
":[95,96]	-10.821
▁was	-10.8222
width	-10.8224
kit	-10.8227
":[32,37	-10.8229
,96]	-10.8244
▁into	-10.8251
▁software	-10.8255
▁un	-10.8258
Tag	-10.8264
Package	-10.8272
▁variable	-10.8278
":[21,26	-10.8288
Run	-10.8306
Yield	-10.8314
this	-10.8329
mi	-10.8329
Signal	-10.8331
▁...	-10.8334
lower	-10.8342
ke	-10.8344
kw	-10.8348
iter	-10.8348
commit	-10.8355
tor	-10.8356
Session	-10.8361
-1	-10.8362
88	-10.8364
reset	-10.8376
▁IN	-10.8381
csv	-10.8394
PY	-10.8395
":"\\	-10.8409
Link	-10.8413
).\	-10.8423
,12]	-10.8423
▁O	-10.8425
90	-10.8439
▁5	-10.8445
,99]	-10.8447
":[10,14	-10.8451
▁ID	-10.8455
filters	-10.8456
":[23,28	-10.8465
▁d	-10.8487
LICENSE	-10.8492
keywords	-10.8495
Content	-10.8499
language	-10.8507
WSGI	-10.8516
ModelAdmin	-10.852
":"1.0	-10.8533
stop	-10.8535
▁\\	-10.8542
84	-10.8561
ct	-10.8561
click	-10.8574
ON	-10.8598
Line	-10.8603
errors	-10.8611
":[24,29	-10.8615
full	-10.8615
fa	-10.8618
ance	-10.8622
▁contains	-10.8632
pro	-10.8638
":[96,97	-10.8641
exception	-10.8644
,55	-10.8648
▁Environment	-10.8657
primary	-10.8658
":[29,34	-10.8658
br	-10.8665
An	-10.8681
interface	-10.8684
attachment	-10.8684
Element	-10.87
arm	-10.8703
plan	-10.8703
loop	-10.8703
06	-10.8704
▁LICENSE	-10.8714
":[13,17	-10.8714
▁Apache	-10.8718
\",	-10.8727
frame	-10.8728
geo	-10.8738
untjac	-10.8738
":[26,31	-10.8742
":[3,4	-10.8751
ps	-10.8759
":[75,78	-10.8768
▁V	-10.8771
yp	-10.8779
▁found	-10.878
worker	-10.8788
ForeignKey	-10.8792
▁print	-10.8799
math	-10.8808
),	-10.8811
horizon	-10.8812
,56	-10.8812
craft	-10.8813
database	-10.8814
▁distributed	-10.8814
▁some	-10.8821
Graph	-10.8834
▁settings	-10.8835
▁If	-10.8836
":[77,80	-10.8842
▁input	-10.8845
au	-10.8855
thing	-10.8864
gyp	-10.8866
mon	-10.887
let	-10.8886
,68	-10.8888
HOST	-10.8892
low	-10.8906
":[1,4,7	-10.8909
work	-10.8912
so	-10.8915
Method	-10.8935
bool	-10.8936
▁up	-10.8937
css	-10.8938
▁2015	-10.8942
":[12,16	-10.8947
":[27,29	-10.896
07	-10.8969
StringIO	-10.8971
':	-10.8971
▁config	-10.8972
Tree	-10.8979
Result	-10.8979
properties	-10.8981
,29,3	-10.9009
ctx	-10.9015
▁model	-10.902
pass	-10.9029
Format	-10.9034
rc	-10.9036
40	-10.905
Interface	-10.9055
▁must	-10.9057
Metadata	-10.9064
utf	-10.907
lock	-10.9073
":[27,32	-10.9077
":[21,25	-10.908
AT	-10.9084
":[96]	-10.9095
":[20,24	-10.91
":[2,5	-10.9107
registry	-10.911
":[31,33	-10.9112
EN	-10.9113
~	-10.912
device	-10.9124
decode	-10.9125
blog	-10.9127
1_	-10.9128
cur	-10.9135
fe	-10.9141
av	-10.9146
iv	-10.9153
chdir	-10.917
▁R	-10.9173
uuid	-10.9178
prop	-10.919
other	-10.9194
":[10,11,12]	-10.9197
":[97]	-10.9201
wrapper	-10.9203
ov	-10.9204
term	-10.9216
mat	-10.9217
comment	-10.9219
pool	-10.922
validate	-10.9233
":[78,81	-10.9233
Options	-10.924
":[9,13	-10.9243
total	-10.9245
registration	-10.9247
,72	-10.9254
can	-10.9255
serve	-10.926
ther	-10.9261
dis	-10.9278
0.1	-10.9282
ENGINE	-10.9285
":[1,4,6,8	-10.9285
\"\	-10.9285
":[28,33	-10.9296
header	-10.9307
,73	-10.9309
▁system	-10.932
router	-10.9322
▁W	-10.9325
":[74,77	-10.933
23	-10.9335
panel	-10.9335
ki	-10.9337
▁g	-10.9337
nullable	-10.9342
":[15,19	-10.9344
Pro	-10.9344
▁database	-10.9344
warn	-10.9348
ka	-10.9351
▁make	-10.9353
":[6,7,8]	-10.9372
25	-10.9388
":[9,14	-10.9394
GET	-10.9395
bi	-10.9407
▁without	-10.9408
Select	-10.941
nCopyright	-10.9416
::\	-10.9417
tornado	-10.9435
member	-10.9436
unique	-10.9439
,30],	-10.9439
di	-10.9442
▁text	-10.9448
Network	-10.9448
ERROR	-10.9451
Input	-10.9451
loc	-10.9456
Example	-10.9464
global	-10.9466
dr	-10.9468
dfp	-10.9471
sync	-10.9475
BASE	-10.9482
21	-10.9486
vo	-10.9494
pos	-10.9495
▁i	-10.9499
▁Beta	-10.95
exists	-10.9501
age	-10.9524
Status	-10.9526
9]	-10.9528
":[1,3,5,7,10	-10.9531
":[12	-10.9539
pack	-10.9541
select	-10.9557
Stream	-10.9587
flags	-10.9593
":[76,79	-10.9627
true	-10.9633
▁Modules	-10.9634
pants	-10.9634
category	-10.9654
Info	-10.9657
ignore	-10.9661
ping	-10.967
book	-10.9671
▁other	-10.9674
DATABASE	-10.9677
allow	-10.9707
groups	-10.9712
rl	-10.9716
":[14	-10.9722
tatooine	-10.9725
":[33,38	-10.9726
images	-10.9746
ze	-10.975
ever	-10.9754
▁N	-10.9755
▁de	-10.9762
▁source	-10.9769
▁current	-10.978
,19,2	-10.9784
feed	-10.9786
200	-10.9786
fire	-10.9795
":[34,39	-10.9803
define	-10.9808
LOG	-10.9808
abc	-10.9824
":[19,23	-10.9828
Email	-10.9833
▁check	-10.984
▁get	-10.9844
▁implementation	-10.9849
Cache	-10.9853
ect	-10.9853
real	-10.9867
▁simple	-10.9871
":[98]	-10.9871
.0	-10.9873
ep	-10.9877
":[22,23,24]	-10.988
\",\	-10.9884
================	-10.9889
ph	-10.9891
ib	-10.9894
TIME	-10.9894
gu	-10.9903
IT	-10.9907
world	-10.9909
needed	-10.9916
▁t	-10.9919
preserve	-10.9929
▁output	-10.9934
Panel	-10.9936
^	-10.9937
CompareIsNot	-10.994
flow	-10.9942
export	-10.9947
,58,	-10.9963
serialize	-10.9973
":[18,22	-10.9991
87	-10.9997
services	-10.9997
TEMPLATE	-11
TO	-11.0008
":[36,38	-11.001
":[22,25,27,29	-11.0015
nova	-11.0022
celery	-11.0024
CE	-11.0026
▁support	-11.0031
urllib	-11.0035
":[34,36	-11.0044
":[1,3,6,9	-11.0079
generator	-11.0104
":[14,20	-11.0131
bind	-11.0134
ws	-11.0136
Api	-11.0146
":[25	-11.0148
▁e	-11.0152
folder	-11.0156
examples	-11.0156
Update	-11.0156
":[8,9,10]	-11.0156
cs	-11.0166
related	-11.0166
diff	-11.0189
Comp	-11.0197
pin	-11.0213
small	-11.0221
▁add	-11.0224
ith	-11.0231
":[33,35	-11.0232
success	-11.0237
":[32,34	-11.0238
fail	-11.0244
pr	-11.0246
\">	-11.0254
card	-11.0257
EX	-11.0264
large	-11.0265
Multi	-11.0267
extend	-11.0274
":[7,12	-11.0278
rule	-11.028
topic	-11.0286
etc	-11.0289
directory	-11.0297
▁values	-11.0299
":[99]	-11.03
Comment	-11.0313
":[19	-11.0315
":[30,35	-11.0316
expect	-11.0318
1000	-11.0334
000	-11.0334
":[79,82	-11.0338
salt	-11.0338
hook	-11.0353
cert	-11.0357
":[31,36	-11.036
Rule	-11.0363
":[8,10]	-11.0371
dd	-11.0375
skip	-11.0376
▁Y	-11.038
TestG	-11.0383
ight	-11.039
memory	-11.04
om	-11.04
":[38,40	-11.0405
{0}	-11.0406
mix	-11.0418
404	-11.0436
,100]	-11.0438
Al	-11.0443
▁create	-11.0448
desc	-11.0448
eq	-11.045
Feature	-11.0462
phone	-11.0467
RA	-11.0476
":[30,31,32	-11.0483
step	-11.0488
transform	-11.0499
79	-11.05
▁Re	-11.05
IO	-11.0508
89	-11.0513
▁sets	-11.0527
,53,	-11.0528
helpers	-11.0536
State	-11.0536
gi	-11.0538
":[3,5	-11.054
proc	-11.0542
layer	-11.0544
bio	-11.0545
▁django	-11.0549
temp	-11.0557
":[30,34	-11.0562
argument	-11.0563
CH	-11.0566
":[22	-11.0577
▁language	-11.0581
":[22,27	-11.0585
ute	-11.0594
▁plugin	-11.0595
IC	-11.0596
TextField	-11.0596
signals	-11.0605
▁begin	-11.0608
▁'%	-11.062
sw	-11.0629
ber	-11.0631
valid	-11.0632
":[14,15,16]	-11.0642
assertTrue	-11.0643
":[35,40	-11.0647
Settings	-11.0654
":[28	-11.0656
0.3	-11.0657
cursor	-11.0657
feature	-11.0659
":"20	-11.0663
HTML	-11.0672
ave	-11.0672
2.0	-11.068
":[16	-11.0696
":[35,37	-11.0697
":[38,43	-11.0702
▁either	-11.0712
55	-11.0714
pu	-11.0724
Mo	-11.0733
":"11	-11.0734
dummy	-11.0741
1.0	-11.0743
LL	-11.0749
****************	-11.0752
":[81,84	-11.0753
tool	-11.0762
starts	-11.0765
27	-11.0766
":[30	-11.0769
dns	-11.0769
Account	-11.0774
▁functions	-11.0778
▁/	-11.0787
Revision	-11.0798
ized	-11.0799
ash	-11.0808
push	-11.0808
▁2014	-11.0811
enabled	-11.0848
,69	-11.0854
Search	-11.0861
Author	-11.0866
":[23	-11.0866
":[24	-11.0867
cu	-11.0867
ssl	-11.0879
transport	-11.0891
LA	-11.0892
▁configuration	-11.0892
Database	-11.0901
XML	-11.0908
autodoc	-11.0927
Tool	-11.0927
mb	-11.0935
▁Version	-11.0945
credentials	-11.095
DATE	-11.0954
browser	-11.0954
53	-11.0956
her	-11.0962
lab	-11.097
▁For	-11.0974
,78	-11.0974
APP	-11.0975
Custom	-11.0977
wait	-11.0979
(\"	-11.0986
":[16,20	-11.0987
tal	-11.0991
":[37,39	-11.0991
▁See	-11.1009
▁WARRANTIES	-11.1011
Product	-11.1012
put	-11.1017
over	-11.1018
struct	-11.1023
counter	-11.1024
transaction	-11.1031
subject	-11.1037
":[20	-11.1037
▁id	-11.1038
ind	-11.1039
permissions	-11.1046
food	-11.1047
we	-11.1047
our	-11.105
rel	-11.1053
▁directory	-11.1073
":[23,27	-11.1078
agent	-11.1101
gl	-11.1104
globals	-11.1105
":[27,31	-11.1108
setting	-11.1109
▁sub	-11.1118
history	-11.1127
got	-11.1128
ible	-11.1147
83	-11.1152
pri	-11.1156
UN	-11.1159
▁objects	-11.1161
pop	-11.1162
boto	-11.1165
ue	-11.1167
":[42,47	-11.1169
":[39,44	-11.1173
▁obtain	-11.1181
▁specified	-11.1181
distribution	-11.1182
MEDIA	-11.1185
extension	-11.1191
":[17	-11.1193
Proxy	-11.1194
classmethod	-11.1201
place	-11.1204
park	-11.1205
og	-11.1206
85	-11.1207
usage	-11.121
exec	-11.1217
eg	-11.1219
▁Internet	-11.1224
VM	-11.1226
shape	-11.1228
bl	-11.1233
permission	-11.1238
hasattr	-11.1239
par	-11.124
menu	-11.1247
Change	-11.1253
":[80,83	-11.1262
":[82,85	-11.1268
":[27	-11.1286
act	-11.1287
ization	-11.1296
":[20,21,22]	-11.1299
attributes	-11.13
▁service	-11.1302
`\	-11.1303
{}	-11.131
constants	-11.1316
,28,3	-11.1324
hy	-11.133
fetch	-11.1336
":[25,26,27]	-11.1341
day	-11.1342
":[22,26	-11.1345
area	-11.1351
4.	-11.1361
48	-11.1367
['	-11.1367
tar	-11.1371
Remove	-11.1372
TR	-11.1381
CA	-11.1387
95	-11.1405
bu	-11.141
tab	-11.1417
quest	-11.1433
Address	-11.1435
":[12,13,14]	-11.1439
KIND	-11.1445
":[46,48	-11.145
board	-11.1457
":[24,25,26]	-11.1466
social	-11.1468
extract	-11.147
mc	-11.1472
OK	-11.1474
builder	-11.1476
accounts	-11.1477
cy	-11.1501
AUTH	-11.1503
Role	-11.1504
sort	-11.1506
":[41,43	-11.1511
▁access	-11.1518
":[44,49	-11.1521
Editor	-11.1522
element	-11.1523
,77	-11.1527
By	-11.1537
ement	-11.1562
":[13,14,15]	-11.1568
▁m	-11.1573
":"255	-11.1574
▁Ma	-11.1578
":[1,4,7,10	-11.1588
":[4,6,1	-11.1594
binary	-11.16
bb	-11.162
26	-11.1622
lu	-11.1627
":[6	-11.1633
section	-11.1646
Configuration	-11.1652
Style	-11.1654
licenses	-11.1657
36	-11.1658
move	-11.166
":[98,99	-11.1661
{{	-11.1662
off	-11.1663
":[29,33	-11.1666
":[21,22,23]	-11.1671
ai	-11.1672
100	-11.1673
91	-11.1673
▁You	-11.1679
lan	-11.1693
png	-11.1694
▁exception	-11.1694
":[97,98	-11.1707
comments	-11.1717
Inline	-11.172
DATABASES	-11.1743
001	-11.1745
,46,5	-11.175
":[42,44	-11.1752
appengine	-11.1755
▁install	-11.1757
inter	-11.1758
fl	-11.1761
ling	-11.1779
verify	-11.1785
Lo	-11.1785
▁need	-11.1791
":[18,19,20]	-11.1791
Co	-11.1794
PL	-11.1794
▁content	-11.1796
▁count	-11.1797
5,	-11.1804
,59,6	-11.1809
Date	-11.1826
hr	-11.1828
sessions	-11.1837
":[1,7	-11.1845
serialization	-11.1851
collection	-11.1852
":[37,42	-11.1885
blob	-11.1886
pid	-11.1893
ware	-11.1894
configuration	-11.1903
":[1,3,5,9	-11.1908
wo	-11.1916
tz	-11.1917
nodes	-11.1918
clear	-11.1921
":[24,28	-11.1926
tables	-11.193
pub	-11.1934
mapping	-11.1935
slice	-11.1939
are	-11.1943
Permission	-11.1943
DESCRIPTION	-11.1949
":[7,11	-11.1952
gis	-11.1962
some	-11.1964
5.	-11.1965
contact	-11.1973
dataset	-11.1983
":[15,16,17,18]	-11.1983
▁based	-11.199
art	-11.199
▁description	-11.1998
nCreated	-11.2005
▁###	-11.2013
":[40,42	-11.2019
ful	-11.2021
Builder	-11.2022
02.	-11.2025
▁response	-11.2031
lat	-11.2036
validation	-11.2041
DateTimeField	-11.2043
4,	-11.2045
▁also	-11.2045
":[1,5	-11.2053
ions	-11.2059
opts	-11.2066
▁each	-11.2075
imp	-11.2081
":[100]	-11.2088
msrest	-11.2091
ted	-11.2102
▁def	-11.2104
▁work	-11.2118
ls	-11.2119
ified	-11.2126
":[29	-11.2139
apache	-11.214
":[50,52	-11.2146
UM	-11.2148
ins	-11.2159
,59	-11.2161
0000	-11.2163
New	-11.2165
3,	-11.2166
▁con	-11.2166
inline	-11.2174
":"30	-11.2174
Description	-11.2175
sentry	-11.2179
Feed	-11.2182
Unless	-11.2184
▁{}	-11.2187
":[28,32	-11.2187
▁instead	-11.2188
":[1,3,9	-11.2192
":[84,87	-11.2194
sender	-11.2203
timezone	-11.2206
ron	-11.2208
Pre	-11.2209
lookup	-11.2218
,18,2	-11.222
easy	-11.2226
power	-11.2228
":[14,18	-11.2229
1.1	-11.2233
sk	-11.2239
div	-11.2254
alembic	-11.2258
timestamp	-11.2266
lines	-11.2277
01.	-11.2281
":[100,101	-11.2281
MA	-11.2292
▁except	-11.2293
":[33,37	-11.2293
Stack	-11.2293
ally	-11.2306
watch	-11.2311
":[35	-11.2313
img	-11.2314
non	-11.2316
ION	-11.2317
Basic	-11.2318
":[17,19	-11.2318
▁permissions	-11.2325
▁available	-11.2331
6.	-11.2331
▁2013	-11.2332
sword	-11.2336
gui	-11.2344
44	-11.2347
ward	-11.2351
":[43,45	-11.2356
CC	-11.2358
Global	-11.2363
scheduler	-11.2368
▁its	-11.2368
dumps	-11.2369
queryset	-11.237
AB	-11.2372
widgets	-11.2377
invalid	-11.2378
68	-11.2384
▁like	-11.2384
corellia	-11.2385
":[17,21	-11.2388
":[36,41	-11.2389
":[83,86	-11.2391
▁Date	-11.2392
":[85,88	-11.2402
bundle	-11.2404
argparse	-11.241
Di	-11.2411
rm	-11.2411
mongo	-11.2412
Redis	-11.2416
abstract	-11.2417
Local	-11.2418
providers	-11.2421
du	-11.2424
ModelForm	-11.2426
warning	-11.2441
":[29,31]	-11.2445
CT	-11.2451
UP	-11.2452
Process	-11.2455
CONFIG	-11.2457
payload	-11.2458
":[46,51	-11.246
Authentication	-11.246
ake	-11.2466
merge	-11.2472
":[36,37,38]	-11.2476
▁image	-11.2481
▁writing	-11.2482
ek	-11.2483
▁pass	-11.2487
ALL	-11.2488
identity	-11.2493
":[32,36	-11.2494
receive	-11.2505
position	-11.2508
Geo	-11.2509
Http	-11.251
ACK	-11.2512
sets	-11.2518
grid	-11.2529
":[99,100	-11.2529
▁classes	-11.2533
fake	-11.254
System	-11.2549
▁load	-11.2551
left	-11.2552
convert	-11.2552
":[4,8,1	-11.256
":[31,35	-11.256
":[26	-11.2561
Doc	-11.2562
fixture	-11.2565
":[35,39	-11.2568
VER	-11.2571
machine	-11.2571
stat	-11.2572
azure	-11.2581
▁node	-11.2585
che	-11.2597
comp	-11.2602
mer	-11.2604
":[44,46	-11.2605
>[\\	-11.261
raises	-11.261
tw	-11.2611
part	-11.2622
platforms	-11.2622
parts	-11.2624
right	-11.2626
rpc	-11.2627
-0	-11.2647
role	-11.2654
IF	-11.266
CO	-11.2671
▁True	-11.2682
54	-11.2695
collector	-11.2703
":[37	-11.2707
,82	-11.2715
detect	-11.2718
":[2,3,4,5]	-11.2725
":[41,46	-11.2726
)/(	-11.2731
COM	-11.2735
":[17,18,19]	-11.2751
-]	-11.2753
▁provides	-11.2754
Component	-11.276
ger	-11.2761
▁v	-11.2762
Redirect	-11.2776
Phone	-11.2776
ingredients	-11.2783
▁following	-11.2784
autodiscover	-11.2787
ix	-11.2789
MP	-11.2796
tuple	-11.2798
sm	-11.2799
":[15,16,17]	-11.2799
":[28,29,30]	-11.2807
ev	-11.2807
Person	-11.2812
Engine	-11.2817
Output	-11.2822
":[19,25	-11.2822
echo	-11.2824
Gaffer	-11.2826
rb	-11.2831
":[43,48	-11.2832
":[49	-11.2835
ik	-11.2836
traits	-11.2841
metrics	-11.2845
35	-11.2849
quote	-11.2853
Property	-11.2854
▁over	-11.2856
dj	-11.2857
":[4	-11.286
0,	-11.2861
Category	-11.2869
▁form	-11.2871
94	-11.2873
ari	-11.2884
":[26,30	-11.2885
uc	-11.2898
height	-11.2901
▁1.	-11.2902
labels	-11.2904
child	-11.2916
Listener	-11.2916
500	-11.2918
uni	-11.2925
Report	-11.293
":[26,27,28]	-11.2941
We	-11.2944
,101]	-11.2948
second	-11.2949
IE	-11.2956
ink	-11.2962
creature	-11.2962
icon	-11.2968
31	-11.2974
Container	-11.2975
▁process	-11.2976
}}	-11.2978
6,	-11.2981
EL	-11.2982
256	-11.2983
two	-11.3003
65	-11.3008
PASSWORD	-11.301
nCreate	-11.3012
uery	-11.3014
URI	-11.3017
MAP	-11.3022
STATUS	-11.3024
Parameter	-11.3025
Control	-11.3027
pair	-11.3028
experiment	-11.3032
":[27,28,29]	-11.3036
sampler	-11.3043
td	-11.3048
CON	-11.3049
":[39	-11.3053
collections	-11.3054
▁X	-11.3054
**	-11.3055
▁auto	-11.3057
review	-11.3059
done	-11.306
▁documentation	-11.3064
rev	-11.3071
specific	-11.3071
34	-11.3074
ja	-11.3076
qua	-11.3077
,103]	-11.3077
ku	-11.3084
":[41,45	-11.3091
":[47,52	-11.3095
WWW	-11.3095
nSee	-11.3096
naboo	-11.3097
head	-11.3101
{3}	-11.3104
":[5	-11.3104
COND	-11.3107
csrf	-11.3109
wp	-11.311
library	-11.312
":[33	-11.3123
Spec	-11.3126
▁script	-11.3134
side	-11.3134
zone	-11.3136
,102]	-11.3136
▁Py	-11.3139
Generator	-11.3143
libcloud	-11.3144
furniture	-11.3152
":[28,30]	-11.3155
).	-11.3162
ENT	-11.3168
-2	-11.3169
":[21,24,25	-11.3174
environment	-11.3175
":[19,20,21]	-11.3186
nA	-11.3192
dashboards	-11.3194
impl	-11.3195
terminal	-11.3195
pipeline	-11.3197
":[101]	-11.3197
signed	-11.3198
6]	-11.32
play	-11.3205
score	-11.3206
▁custom	-11.3208
Ref	-11.3211
▁returns	-11.3213
nYou	-11.3216
vis	-11.3223
":[34,38	-11.3224
PREFIX	-11.3227
plain	-11.3231
":[31	-11.3236
":[50,55	-11.3237
":[20,21,22,23]	-11.3241
tic	-11.3249
,24,3	-11.3255
controller	-11.3256
":[47,48,49	-11.3271
tt	-11.3272
":[40,45	-11.3283
reload	-11.329
providing	-11.3291
black	-11.3295
summary	-11.3297
SCons	-11.3302
▁implied	-11.3309
button	-11.3311
Map	-11.3315
Pa	-11.3317
":[23,24,25]	-11.3321
details	-11.3325
rand	-11.3326
regex	-11.3342
▁Test	-11.3344
Script	-11.3345
xrange	-11.3348
deployment	-11.3353
internal	-11.3354
":[45,50	-11.3363
rad	-11.3366
4]	-11.3369
▁page	-11.3379
DATA	-11.338
▁out	-11.3381
Build	-11.3382
":[29,30,31]	-11.3385
▁created	-11.3385
▁%(	-11.3386
gra	-11.3387
internet	-11.3406
Window	-11.3413
metric	-11.3418
▁SOFTWARE	-11.3423
":[47	-11.3438
POST	-11.344
MD	-11.3442
Article	-11.3443
choices	-11.3446
":[25,29	-11.3455
Cloud	-11.3457
less	-11.346
":[43,44,45	-11.3467
▁2.6	-11.3472
▁containing	-11.3475
===============	-11.3484
":[49,51	-11.3492
BACKEND	-11.3493
Color	-11.3494
remote	-11.3501
Foo	-11.3502
Login	-11.3505
58	-11.351
pip	-11.3514
mask	-11.3514
Dummy	-11.3516
compress	-11.352
nRevis	-11.3523
ated	-11.3528
▁view	-11.353
▁<=	-11.354
NOT	-11.3544
sites	-11.3547
deb	-11.3552
Bar	-11.3557
law	-11.3558
END	-11.3558
logout	-11.3559
ou	-11.3559
vote	-11.3561
events	-11.3563
dot	-11.3569
mission	-11.3571
serializers	-11.3574
ey	-11.3575
▁express	-11.3579
▁*,	-11.3585
standard	-11.359
loads	-11.3592
▁been	-11.3594
▁commands	-11.3595
77	-11.3598
price	-11.3604
green	-11.3612
publish	-11.3613
":[38,42	-11.3614
Driver	-11.3615
ble	-11.3615
Usage	-11.3628
":[4,6,4	-11.364
":[17,23	-11.3641
":[54,59	-11.3642
":[32,33,34]	-11.3652
built	-11.3668
corehq	-11.3669
56	-11.3673
ade	-11.3674
MO	-11.3679
Host	-11.3679
▁Flask	-11.3679
addr	-11.368
ler	-11.3681
":[36,40	-11.3684
Miscellaneous	-11.3693
>[^/]	-11.3696
▁provided	-11.3697
":[40,44	-11.3699
):	-11.3707
pickle	-11.3716
enter	-11.3717
encrypt	-11.3721
final	-11.3726
▁None	-11.3728
TypeError	-11.3734
fname	-11.3734
BE	-11.3735
CF	-11.3751
Password	-11.3752
Mark	-11.3752
7]	-11.3756
▁context	-11.3757
fix	-11.3757
migrate	-11.3762
hostname	-11.3764
63	-11.3765
batch	-11.3777
modified	-11.3781
":[43	-11.3782
scale	-11.3782
hu	-11.3788
▁base	-11.379
INT	-11.379
correct	-11.3795
SE	-11.3796
weight	-11.3799
":[32,35,36	-11.3802
":[48,53	-11.3816
void	-11.3816
hard	-11.3819
ities	-11.3821
▁start	-11.3848
AP	-11.3849
Count	-11.3858
af	-11.3863
glob	-11.3868
crafting	-11.3871
pypi	-11.3874
▁last	-11.3877
":[45,47	-11.3887
▁extension	-11.3891
":[47,49	-11.3892
▁field	-11.3892
wagtail	-11.3892
formatter	-11.3892
sock	-11.3892
mysql	-11.3896
Properties	-11.3899
ord	-11.39
answer	-11.3907
":[6,10,2	-11.3927
FS	-11.3931
Windows	-11.3936
":[16,17,18]	-11.3938
binding	-11.3939
fp	-11.3944
▁10	-11.3944
archive	-11.3944
flag	-11.3945
allowed	-11.3948
organization	-11.3951
127.0.0.1	-11.3951
year	-11.3955
Thread	-11.3959
400	-11.3961
45	-11.3969
actor	-11.3975
,20,2	-11.3978
links	-11.3978
LI	-11.3981
":[11,12,13]	-11.3984
":[6,10,1	-11.3991
mac	-11.4
▁first	-11.4
security	-11.4009
▁world	-11.4012
sheet	-11.4021
mar	-11.4024
Mode	-11.4025
AD	-11.4034
":[55,59	-11.4038
eng	-11.4043
":[40	-11.405
here	-11.4053
dic	-11.4053
":"0001_	-11.4057
dump	-11.4059
ries	-11.4061
char	-11.4066
":[1,3,6,8,10	-11.4067
team	-11.4074
OP	-11.4075
SET	-11.4077
branch	-11.4081
fill	-11.4083
radial	-11.4085
RO	-11.4085
▁token	-11.4086
":[9,10,11]	-11.4092
▁rights	-11.4094
▁via	-11.4094
":[8,10	-11.4104
country	-11.4106
-2.0	-11.4106
fast	-11.4111
direct	-11.4116
und	-11.4117
":[57,58,59	-11.4121
matrix	-11.4126
3_	-11.4128
NotFound	-11.4129
Record	-11.413
requirements	-11.4137
Collection	-11.4137
scrapy	-11.4138
":[15,21	-11.4143
8]	-11.4143
":[13,19	-11.4144
reason	-11.4148
":[18,24	-11.4153
BooleanField	-11.4169
downgrade	-11.4169
,38,4	-11.4174
ring	-11.4177
SITE	-11.4178
Access	-11.4178
2-	-11.4178
mime	-11.4181
SP	-11.4184
▁web	-11.4191
versions	-11.4192
BO	-11.4193
96	-11.4198
GROUP	-11.4203
▁3.3	-11.4211
,42,5	-11.4214
,48,5	-11.4219
renderer	-11.4222
ual	-11.4231
▁In	-11.4233
SERVER	-11.4245
▁>=	-11.4246
edge	-11.4248
like	-11.4249
partial	-11.4251
2.1	-11.4252
TestSuite	-11.4252
":[48,52	-11.4254
":[10,11,12,13]	-11.4258
words	-11.426
Router	-11.4261
/*	-11.4261
trace	-11.4263
Install	-11.4263
Twisted	-11.4268
monster	-11.427
▁3.4	-11.427
govern	-11.427
scope	-11.4271
original	-11.4274
":[87,90	-11.4291
":[31,32,33]	-11.4299
Schema	-11.4305
buffer	-11.4305
\\.	-11.4306
bucket	-11.4307
Source	-11.4311
SH	-11.4318
Unit	-11.432
----------\	-11.4326
Tab	-11.4326
nFor	-11.4327
mit	-11.433
Me	-11.4331
":[6,12	-11.4337
":[1,3,11	-11.4338
ations	-11.4349
hue	-11.435
":[55,57	-11.4356
chart	-11.4362
qi	-11.4369
,11]	-11.4369
linux	-11.4371
issue	-11.4379
live	-11.4379
pipe	-11.4396
reg	-11.4419
plt	-11.442
Enum	-11.4428
round	-11.4431
LOCATION	-11.4432
compat	-11.4435
----------------	-11.444
vert	-11.4452
":[34,35,36]	-11.4452
Ad	-11.4455
49	-11.4457
website	-11.4465
59	-11.4468
private	-11.4475
Protocol	-11.4476
ld	-11.448
ids	-11.4481
control	-11.4493
▁format	-11.4497
":[5,9	-11.4502
rd	-11.4503
Ship	-11.4504
":[36	-11.4505
hub	-11.4506
maintainer	-11.4508
▁applicable	-11.451
▁compliance	-11.451
ITIONS	-11.451
readme	-11.4511
sources	-11.4516
":[16,22	-11.4526
▁const	-11.453
ton	-11.4532
manage	-11.4539
most	-11.454
All	-11.4541
threading	-11.4543
facebook	-11.4544
ONE	-11.4544
Step	-11.4545
video	-11.4549
blueprint	-11.4553
buf	-11.4564
INPUT	-11.4564
":[44	-11.4567
":[8,12,2	-11.4568
▁BAS	-11.457
▁same	-11.4571
":[42	-11.4576
":[49,54	-11.4577
volume	-11.4577
":[51,56	-11.4579
ffi	-11.4589
tin	-11.4589
":[42,46	-11.459
.*	-11.4594
▁resource	-11.4594
":[48,50	-11.4594
99	-11.4599
should	-11.46
,49,5	-11.4602
":[33,34,35]	-11.461
▁show	-11.4614
([	-11.4624
async	-11.4626
▁called	-11.4629
[0	-11.4632
":[37,41	-11.464
days	-11.464
builtin	-11.4665
Transport	-11.4665
,20,	-11.4665
sent	-11.4666
Generic	-11.467
":[90,93	-11.4673
":[89,92	-11.4673
":[59,61	-11.4675
▁agree	-11.4676
twitter	-11.4679
vers	-11.468
Entry	-11.468
aa	-11.4683
pot	-11.4689
Try	-11.4693
Read	-11.4694
toolkit	-11.4695
serializer	-11.4704
▁log	-11.4706
MODEL	-11.4708
ish	-11.4709
Min	-11.4712
mt	-11.4714
":[38,39,40]	-11.4715
":[51,53	-11.4718
":[30,32]	-11.4729
ensure	-11.4731
Endpoint	-11.4735
":[52,57	-11.4736
spider	-11.4737
monitor	-11.4738
▁where	-11.474
ram	-11.4741
compatible	-11.4742
▁target	-11.4744
▁https	-11.4745
":[35,36,37]	-11.4746
LINE	-11.4749
":[29,30	-11.4752
":[1,5,7	-11.4756
62	-11.4762
▁}}	-11.4762
wrap	-11.4768
GeneratorExp	-11.4769
67	-11.4777
":[88,91	-11.4788
Make	-11.4792
▁program	-11.4798
sublime	-11.48
font	-11.48
failed	-11.4805
proto	-11.4809
advanced	-11.4813
92	-11.4816
,104]	-11.4822
▁Inc	-11.4824
47	-11.4827
▁..	-11.4828
fixtures	-11.4833
interp	-11.4837
alter	-11.4852
":[11,17	-11.4853
contents	-11.4856
Break	-11.4858
▁==	-11.4868
))	-11.4868
RC	-11.4874
▁HTTP	-11.489
":[43,47	-11.489
▁local	-11.4896
":[8,14	-11.4896
":[49,53	-11.4897
mem	-11.4903
nto	-11.491
":[54,56	-11.4912
jinja	-11.4915
available	-11.4918
launch	-11.4919
cb	-11.4924
pp	-11.4924
":"../	-11.4924
TemplateView	-11.4925
webapp	-11.4931
gg	-11.4935
▁Copyright	-11.4936
lt	-11.4937
ez	-11.4938
grr	-11.494
pdf	-11.4941
▁array	-11.4943
▁Production	-11.4945
2013	-11.4946
robot	-11.4948
validators	-11.4952
notification	-11.4954
trans	-11.4959
gz	-11.496
,81	-11.4963
cms	-11.4963
Of	-11.4965
":[1,3,8	-11.4971
CL	-11.4977
▁order	-11.4977
Start	-11.4984
dependency	-11.4986
rv	-11.4989
Com	-11.4994
coverage	-11.4995
rules	-11.4997
▁setting	-11.5004
APIResource	-11.5006
imperial	-11.501
game	-11.5012
cases	-11.5021
tri	-11.5022
rdf	-11.5027
":[47,51	-11.5028
les	-11.5035
":[86,89	-11.5036
city	-11.5036
edu	-11.5044
repository	-11.5044
▁FOR	-11.5049
▁All	-11.5053
":[6,8,1	-11.5054
TH	-11.5056
XS	-11.5059
reduce	-11.5059
hex	-11.5064
see	-11.5065
Stable	-11.5065
medium	-11.5067
integration	-11.5068
▁send	-11.5069
":[53,58	-11.5069
medicine	-11.5074
▁edit	-11.5076
train	-11.5083
":[7,12,13	-11.5084
ql	-11.5096
":[39,43	-11.5101
Be	-11.511
▁WITHOUT	-11.5111
escape	-11.5112
override	-11.5117
CODE	-11.5119
":[7,8,9]	-11.5125
VP	-11.5127
":[31,32	-11.5132
":[37,38,39]	-11.5134
classes	-11.5135
ker	-11.5135
Core	-11.5149
aws	-11.516
Ex	-11.5165
▁valid	-11.5166
3.0	-11.5167
▁testing	-11.5169
subscription	-11.5169
ier	-11.5173
ack	-11.5173
zero	-11.5178
":[21,27	-11.5188
▁##	-11.519
prompt	-11.519
":[16,17,18,19]	-11.5191
compiler	-11.5197
Apache	-11.5207
ero	-11.5207
▁include	-11.521
▁users	-11.5212
hooks	-11.5218
Paged	-11.522
▁status	-11.522
":[45,46,47	-11.5221
qs	-11.5223
generated	-11.5223
▁modules	-11.5231
▁find	-11.5231
seq	-11.5232
AG	-11.5233
><	-11.5237
verbosity	-11.5239
,50,5	-11.524
offset	-11.5241
Collector	-11.5242
car	-11.5247
UR	-11.5247
8,	-11.5251
97	-11.5261
oslo	-11.5276
▁display	-11.5278
nthe	-11.5278
":[44,48	-11.5282
jobs	-11.5285
MENT	-11.5287
serial	-11.5289
cast	-11.5289
visit	-11.5292
":[6,10,3	-11.5296
cm	-11.5296
oom	-11.5302
sorted	-11.5302
submit	-11.5307
executable	-11.5311
ina	-11.5314
har	-11.5315
SSL	-11.5317
dc	-11.5329
SIG	-11.5331
EC	-11.5333
":[4,6,3	-11.5335
▁standard	-11.534
OUT	-11.5341
":[1,3,10	-11.5346
,47,5	-11.5355
dirs	-11.536
limitations	-11.5362
▁h	-11.5366
TEXT	-11.5373
customer	-11.5373
fmt	-11.5375
Renderer	-11.5377
staticmethod	-11.538
,42,4	-11.5381
parameters	-11.5386
pan	-11.5388
":[57,62	-11.539
Fix	-11.5391
":[48	-11.5392
▁generated	-11.5395
bad	-11.5398
nand	-11.5398
":[58,63	-11.5403
▁An	-11.5408
":[1,3,5,8,11	-11.5417
37	-11.5417
tokens	-11.5426
pypy	-11.5434
":[18	-11.5434
▁item	-11.5439
Per	-11.5441
,10,1	-11.5441
zz	-11.5443
Ca	-11.5452
confirm	-11.5453
Bad	-11.5461
":[101,102	-11.5462
":[3,6	-11.5462
changes	-11.5464
▁want	-11.5467
enum	-11.5468
lang	-11.5472
locale	-11.5481
":[58,62	-11.5483
▁running	-11.549
57	-11.5493
agg	-11.5498
GR	-11.5504
processor	-11.5507
special	-11.5514
virtual	-11.5521
Block	-11.5531
abs	-11.5533
rebel	-11.5535
":[46,49,50	-11.5536
":[56,60	-11.5544
migration	-11.555
cookie	-11.5571
CR	-11.5572
▁back	-11.5573
existing	-11.5575
ident	-11.5577
writer	-11.558
que	-11.5584
":[93,96	-11.5588
seed	-11.5595
":[2,6	-11.5596
precationWarning	-11.5598
only	-11.56
▁read	-11.5603
":[102]	-11.5609
Inter	-11.5616
98	-11.5618
reader	-11.5621
pandas	-11.5624
▁build	-11.5625
":[14,15	-11.5627
TOKEN	-11.5632
":[12,17,18	-11.5636
":[52,54	-11.5637
INFO	-11.5647
methods	-11.5649
rag	-11.5654
▁there	-11.5658
owner	-11.5659
Warning	-11.566
initialize	-11.5661
air	-11.5664
lightsaber	-11.5671
":[1,3,5,11	-11.5692
dt	-11.5696
OF	-11.57
VI	-11.5702
▁dict	-11.5702
":[1,3,5,12	-11.5708
routes	-11.5712
embed	-11.5713
discover	-11.5716
present	-11.5716
":[29,32,33	-11.5717
rack	-11.5717
dog	-11.5722
mini	-11.5723
wiki	-11.5727
ACTION	-11.5729
INSTALL	-11.573
person	-11.573
93	-11.5735
▁than	-11.5738
":[50,54	-11.5746
Policy	-11.5755
▁change	-11.576
ifier	-11.5766
":[66	-11.5769
TT	-11.5771
sitemap	-11.5775
":[4,5	-11.5781
native	-11.5788
shortcuts	-11.5791
Button	-11.5793
gevent	-11.5797
":[4,5,6,7]	-11.5797
dest	-11.5801
ong	-11.5803
face	-11.5805
added	-11.581
seconds	-11.5828
policy	-11.5831
processing	-11.5833
":[39,42,43	-11.5837
switch	-11.5845
Metric	-11.5845
▁case	-11.5846
sl	-11.585
chunk	-11.5852
screen	-11.5864
eventlet	-11.5864
Main	-11.5866
":[4,8	-11.5871
":[55,60	-11.5874
▁two	-11.5888
▁through	-11.589
Unicode	-11.5897
SO	-11.5899
▁results	-11.5908
FT	-11.5919
feeds	-11.592
":[10,16	-11.592
deploy	-11.5921
▁Example	-11.5921
partition	-11.5926
layout	-11.593
normal	-11.5933
DATETIME	-11.5936
":[23,29	-11.5939
tk	-11.5939
perm	-11.5957
":[1,3,5,8,10	-11.5958
▁parameters	-11.5962
rock	-11.5972
decimal	-11.5972
Copyright	-11.5976
▁sequence	-11.5979
},	-11.5987
poll	-11.5991
":[20,26	-11.5993
Device	-11.5997
MAX	-11.5998
{2}	-11.6
since	-11.6007
Sta	-11.6017
":[57,61	-11.6023
,13,16	-11.6028
fd	-11.6029
▁size	-11.6034
eval	-11.6035
▁my	-11.6037
interfaces	-11.6044
▁{0}	-11.6053
rf	-11.6054
CONF	-11.6055
STATIC	-11.6056
BinOpBit	-11.6058
contenttypes	-11.6059
ADD	-11.6063
none	-11.6067
":[45,49	-11.6071
markdown	-11.6073
mul	-11.6078
":[32	-11.6079
▁metadata	-11.6085
":[56,61	-11.6086
irc	-11.6095
123	-11.6108
":[4,6,2	-11.6109
":[55	-11.6112
hat	-11.6116
NS	-11.6118
":[53,55	-11.6121
ark	-11.6123
follow	-11.6124
symbol	-11.6127
vim	-11.614
REST	-11.6146
▁way	-11.6146
Helper	-11.6154
pm	-11.6155
":[8,12	-11.6156
▁argument	-11.6158
▁could	-11.6159
MS	-11.6162
Bit	-11.6164
uit	-11.6168
1.2	-11.6174
":[40,43,44	-11.6184
":[67	-11.6186
hosts	-11.6187
▁implement	-11.6192
egg	-11.6194
ascii	-11.6205
execution	-11.6205
edpack	-11.6208
▁wrapper	-11.6208
workflow	-11.6208
matplotlib	-11.621
))\	-11.622
Statement	-11.622
▁me	-11.622
":[46,50	-11.6221
fh	-11.6223
":[6,8]	-11.6225
house	-11.623
▁such	-11.6231
,60,6	-11.6233
Part	-11.624
failure	-11.625
ture	-11.6253
,56,6	-11.6255
DO	-11.6257
problem	-11.6276
updated	-11.6277
false	-11.6282
external	-11.6283
Label	-11.6285
Url	-11.6285
question	-11.6288
forward	-11.6291
OpenStack	-11.6296
MIB	-11.6299
▁how	-11.6303
datasets	-11.6304
readline	-11.6307
origin	-11.632
maps	-11.6321
▁email	-11.6328
tf	-11.634
":[63,65	-11.6341
orm	-11.6347
keep	-11.635
Logger	-11.635
fit	-11.6357
completion	-11.6358
verilog	-11.6366
▁person	-11.6368
AUTHOR	-11.6368
kind	-11.6369
']	-11.6376
mgmt	-11.6376
cut	-11.6386
▁state	-11.6399
way	-11.6401
":[39,40,41]	-11.6403
rain	-11.6406
":[39,41]	-11.6408
alpha	-11.6413
▁them	-11.6416
formats	-11.6428
az	-11.6428
73	-11.6438
":[103]	-11.6447
ach	-11.6447
heavy	-11.6451
nIt	-11.6452
":[59,64	-11.6454
amp	-11.6464
SA	-11.6465
fo	-11.6466
ite	-11.6467
":[28,31,32	-11.6476
":[38	-11.6503
▁properties	-11.6504
enable	-11.6505
":[92,95	-11.6505
consumer	-11.6507
":[10,14,2	-11.651
ef	-11.6513
Hash	-11.6518
▁table	-11.6519
sol	-11.6523
":[22,23,24,25]	-11.6523
":[26,32	-11.6526
arr	-11.6539
":[41,42,43]	-11.6542
ich	-11.6542
▁point	-11.6545
:::::	-11.6551
,43,46	-11.656
tier	-11.6562
UEST	-11.6565
staticfiles	-11.6568
":[1,6	-11.6572
delay	-11.6572
missing	-11.6576
78	-11.6577
Work	-11.6578
functools	-11.6581
condition	-11.6587
frappe	-11.6593
▁represent	-11.6594
▁just	-11.6599
{%	-11.66
▁NOT	-11.6606
qui	-11.663
vt	-11.6631
dec	-11.6635
ops	-11.6643
Xml	-11.6643
7,	-11.6645
Box	-11.6649
particle	-11.6671
▁permission	-11.6671
":[7,11,3	-11.6674
-------\	-11.6675
lg	-11.6685
▁exist	-11.6691
":[52	-11.6693
ssh	-11.6696
/*.	-11.6701
installation	-11.6701
":[51,55	-11.6711
":[56,58	-11.6713
Runner	-11.672
eb	-11.6721
reference	-11.6722
say	-11.6723
Point	-11.6724
":[53,57	-11.6725
FF	-11.6726
expire	-11.6732
ValidationError	-11.6732
sellmo	-11.6735
raise	-11.6742
▁notice	-11.6752
latest	-11.6756
wx	-11.6757
called	-11.6762
":[52,56	-11.6765
":[34	-11.6771
ordering	-11.6787
Order	-11.6791
CLI	-11.6793
52	-11.6794
":[58,60	-11.6796
Send	-11.68
,28,31	-11.6801
neutron	-11.6801
prepare	-11.6802
Crypto	-11.6807
39	-11.6808
▁Note	-11.681
extras	-11.6812
BaseAction	-11.6813
disk	-11.6816
Word	-11.682
51	-11.6823
Please	-11.6826
shield	-11.6827
SHORT	-11.6829
cf	-11.6834
ya	-11.6836
trac	-11.6839
star	-11.6845
assertEquals	-11.685
avi	-11.6854
ctypes	-11.6858
wall	-11.6863
parsers	-11.6864
payment	-11.6867
▁single	-11.6874
▁l	-11.6874
/<	-11.688
strict	-11.6881
Port	-11.6882
ava	-11.6883
▁framework	-11.6884
▁</	-11.6885
Convert	-11.6893
Observable	-11.6893
pull	-11.6894
windows	-11.6895
quick	-11.6896
▁LED	-11.6905
":[1,3,5,10	-11.6911
ley	-11.6915
":[40,41,42]	-11.6916
Licensed	-11.692
ATION	-11.6922
":[60	-11.6937
Lib	-11.6938
cv	-11.6949
urlresolvers	-11.6953
▁after	-11.6954
,39,4	-11.6956
EMAIL	-11.6959
month	-11.696
signature	-11.6961
Mongo	-11.6962
1/	-11.6962
AWS	-11.6963
ei	-11.6968
Some	-11.697
":[7,11,4	-11.6972
":[6,8,2	-11.6978
▁between	-11.698
regions	-11.6986
LOAD	-11.6988
":[60,65	-11.6991
exe	-11.6996
something	-11.7
AM	-11.7005
":[12,13,14,15]	-11.7012
▁open	-11.7018
DoesNotExist	-11.7024
▁network	-11.7027
":[25,31	-11.703
▁2012	-11.7031
tcp	-11.7033
LAlchemy	-11.7035
java	-11.704
paste	-11.7045
inspect	-11.7045
":[54	-11.7056
px	-11.7056
46	-11.7059
▁another	-11.7061
▁tag	-11.707
FA	-11.7072
CD	-11.7076
mean	-11.7077
authorize	-11.7078
":[54,58	-11.7082
":[58,59,60	-11.7084
cell	-11.7088
MIDDLEWARE	-11.7089
":[42,43,44]	-11.7091
sun	-11.7091
CLASSES	-11.7092
72	-11.7094
DIS	-11.7094
▁location	-11.7094
ini	-11.7097
Char	-11.71
▁related	-11.71
constraint	-11.7111
complex	-11.7112
":[61,63	-11.7114
Bu	-11.7117
":[4,6,	-11.7122
,26,3	-11.713
▁task	-11.7131
center	-11.7131
Generate	-11.7134
ard	-11.7135
projects	-11.7141
":[63,67	-11.7146
":[58	-11.7147
▁they	-11.7152
▁event	-11.7158
processors	-11.7158
wraps	-11.7159
Typed	-11.7159
Tools	-11.716
":[1,4,7,10,13	-11.716
3.1	-11.7161
":[4,8,2	-11.7166
":[32,33	-11.7168
shop	-11.7168
69	-11.717
MIN	-11.717
Memory	-11.7171
▁World	-11.7179
Location	-11.7183
cybox	-11.7185
once	-11.7185
chain	-11.7186
Entity	-11.7187
relation	-11.7189
interactive	-11.7189
▁AND	-11.7192
retry	-11.7194
74	-11.7195
":[91,94	-11.7196
Sample	-11.7198
sdk	-11.7201
std	-11.7201
found	-11.7202
,26,27,28,29,30	-11.7202
Natural	-11.7211
43	-11.7212
▁char	-11.7215
▁AUTHORS	-11.7217
ju	-11.7219
Google	-11.722
ython	-11.7222
land	-11.7232
emit	-11.7236
":[31,34,35	-11.7244
▁->	-11.7245
LY	-11.7258
activate	-11.7264
Pool	-11.7265
apply	-11.7266
todo	-11.7266
observer	-11.7268
shellcode	-11.727
bra	-11.7283
ilinx	-11.7288
":[5,10	-11.7295
additional	-11.7297
figure	-11.7302
Option	-11.7312
03.	-11.7314
gh	-11.732
rating	-11.7325
pg	-11.7342
":[22,28	-11.7349
ueue	-11.735
Target	-11.7353
THE	-11.7356
▁named	-11.7356
fabric	-11.7359
scan	-11.736
Download	-11.7361
":[21,22,23,24]	-11.7361
tick	-11.7363
workbook	-11.7365
":[10,11	-11.7367
":[6,7,8,9]	-11.7367
ask	-11.7367
byte	-11.7369
expression	-11.7369
bc	-11.737
":[11,19	-11.7371
acc	-11.7377
":[9,15	-11.7381
djangoproject	-11.7381
":[49,50,51]	-11.7404
▁connection	-11.7408
▁contain	-11.7408
tearDown	-11.7412
0.4	-11.7425
snapshot	-11.7426
▁deprecated	-11.7427
mal	-11.7429
drivers	-11.7429
Float	-11.7432
generators	-11.7433
smart	-11.7434
Actions	-11.7434
actual	-11.7435
Multiple	-11.7436
":[8,12,1	-11.7436
":[45	-11.7437
high	-11.7448
zmq	-11.7448
DetailView	-11.7449
production	-11.7452
arch	-11.7454
▁reserved	-11.7455
tle	-11.7458
CreateModel	-11.7459
38	-11.7461
":[26,29,30	-11.7463
▁mode	-11.7473
flat	-11.7476
const	-11.748
deleted	-11.7481
syntax	-11.7512
URLCONF	-11.7513
learn	-11.7516
Root	-11.7516
collect	-11.7519
":[94,97	-11.7524
mine	-11.7529
DAY	-11.7534
tx	-11.7539
▁tool	-11.7545
RST	-11.7549
gram	-11.7553
":[62,67	-11.7558
":[48,49,50]	-11.7561
TABLE	-11.7563
distributed	-11.7565
":[44,47,48	-11.7568
listen	-11.7574
track	-11.7574
999	-11.7576
":[34,37,38	-11.7576
article	-11.7579
":[60,62	-11.758
RPC	-11.7583
":[30,36	-11.7585
":[70,71,72	-11.7587
1-	-11.7597
secure	-11.7598
▁search	-11.7599
micro	-11.7601
":[4,8,5	-11.7603
▁Google	-11.7603
Compute	-11.7608
▁backend	-11.761
indexes	-11.7611
Platform	-11.7612
dialog	-11.7612
fig	-11.7614
dfvfs	-11.7614
":[102,103	-11.7619
▁allows	-11.7623
fixer	-11.7625
":[8,15	-11.7626
":[6,8,4	-11.7626
":[12,16,2	-11.7627
ViewSet	-11.7634
nTo	-11.7639
,27,29	-11.7653
":[27,30,31	-11.7653
▁%}	-11.7669
charge	-11.7671
Binary	-11.7673
})	-11.7674
Up	-11.7682
tempfile	-11.7683
iso	-11.7684
interval	-11.7687
▁installed	-11.7688
Credential	-11.7688
DS	-11.7688
Any	-11.7694
":[22,25,26	-11.7701
PER	-11.7706
":[28,29	-11.7706
etString	-11.7713
81	-11.7724
▁convert	-11.7724
boot	-11.7725
You	-11.7735
Upload	-11.7738
Pow	-11.7739
Util	-11.7747
metaclass	-11.775
Formatter	-11.7757
where	-11.7759
Support	-11.7761
dy	-11.7763
beta	-11.7766
Grid	-11.7768
qt	-11.777
translator	-11.7776
Parse	-11.7778
cross	-11.778
note	-11.7783
▁sure	-11.779
elem	-11.7791
▁**	-11.7793
mm	-11.7794
loading	-11.7796
ability	-11.7805
":[61,66	-11.7816
tabs	-11.7824
▁take	-11.7824
retrieve	-11.7835
rit	-11.7838
▁about	-11.7839
Case	-11.7843
bla	-11.7843
,20,25	-11.7844
▁host	-11.7846
dialect	-11.785
resolve	-11.7854
2014	-11.7856
":[19,20,21,22]	-11.7858
\")\	-11.7858
>`	-11.786
Required	-11.7862
ness	-11.7869
toolbox	-11.7871
must	-11.7873
":[10,19,21	-11.7882
variable	-11.7886
":[13,14,15	-11.789
dim	-11.7898
":"0.9	-11.7899
":[65,69	-11.79
ica	-11.7902
METADATA	-11.7906
bro	-11.7908
jo	-11.7918
▁authentication	-11.7918
CACHE	-11.7925
Git	-11.7929
":[1,4,6,8,10	-11.793
worksheet	-11.7938
Solution	-11.7942
▁job	-11.7945
":[28,29,30,31	-11.7945
products	-11.7945
,54,6	-11.7946
▁Data	-11.7947
segment	-11.7947
":[71,72,73	-11.7947
HAS	-11.7954
Weapon	-11.7958
▁who	-11.796
▁above	-11.796
▁different	-11.7961
▁defined	-11.7961
Over	-11.7961
booster	-11.7963
▁else	-11.7964
":[27,33	-11.7964
perk	-11.7968
▁non	-11.7977
uid	-11.7978
":[65,70	-11.7989
LALCHEMY	-11.7996
Route	-11.8007
cycle	-11.8016
Media	-11.8016
▁parent	-11.8027
":[95,98	-11.8031
blue	-11.8031
":[64	-11.8033
></	-11.8037
eve	-11.8039
character	-11.804
▁raised	-11.8047
▁every	-11.8047
":[4,6,5	-11.805
inner	-11.8052
":[24,30	-11.8054
▁remote	-11.8056
▁Alpha	-11.8064
":[38,41,42	-11.8068
▁Use	-11.807
',\	-11.8072
":[19,20	-11.8075
":[12,13	-11.8075
,106]	-11.8083
REDIS	-11.8085
▁element	-11.8086
Definition	-11.8096
":[18,19	-11.8097
":[57,59	-11.8097
functions	-11.8097
devices	-11.81
":[89,9	-11.8103
protocols	-11.8107
vector	-11.8107
benchmark	-11.8108
":"../..	-11.8111
currency	-11.8113
WIDTH	-11.8114
authenticated	-11.8117
eu	-11.8125
,30,35	-11.8126
":[6,8,3	-11.8128
NET	-11.8135
zabrak	-11.8135
":[105]	-11.814
Do	-11.8142
41	-11.8147
supported	-11.8153
med	-11.8156
AND	-11.8165
returns	-11.8167
▁HTML	-11.8172
hold	-11.8172
":[61,65	-11.8173
Operation	-11.8174
Compiler	-11.8177
,13,16,19,22,25	-11.8186
timedelta	-11.8196
life	-11.8197
aggregate	-11.8197
lm	-11.8198
":[34,35	-11.8199
gate	-11.82
sym	-11.8201
pprint	-11.8202
▁cache	-11.8204
plural	-11.8205
spawn	-11.8205
Security	-11.8208
weblab	-11.8209
▁full	-11.8212
LONG	-11.8213
":[2,7	-11.8219
":[104]	-11.8221
▁English	-11.8222
":[1,3,6,9,11,14	-11.8224
▁names	-11.823
magic	-11.8235
Size	-11.8245
":[24,25	-11.8246
":[69,73	-11.8249
FE	-11.8249
STR	-11.825
":[70,75	-11.8251
installed	-11.8256
1:	-11.8257
locals	-11.8267
crawl	-11.8273
cron	-11.8275
Transform	-11.8278
alert	-11.8278
south	-11.8279
":[2,3	-11.828
expand	-11.8281
inject	-11.8288
":[1,3,5,14	-11.829
":[68	-11.8291
Wrapper	-11.8297
Virtual	-11.8297
TAG	-11.8301
▁handler	-11.8304
{1}	-11.8307
▁environment	-11.8322
":[33,34,35,36]	-11.8348
fb	-11.8354
▁useful	-11.8354
rows	-11.8357
SNMP	-11.8359
ready	-11.836
Ver	-11.8362
▁before	-11.8366
Book	-11.8371
period	-11.8372
dom	-11.8376
Blueprint	-11.838
":[14,15,16,17]	-11.8382
family	-11.8384
MyS	-11.8386
Layer	-11.8387
dictionary	-11.8387
rank	-11.8388
regression	-11.8388
used	-11.8392
":[51	-11.8392
integer	-11.8393
Failed	-11.8394
":[8,10,12]	-11.8394
SEPARATOR	-11.8396
Enter	-11.8398
sec	-11.8399
Transp	-11.84
strong	-11.8404
,44,46	-11.8405
":[35,38,39	-11.8415
single	-11.8415
":[54,55,56]	-11.8424
":[64,69	-11.8425
":[53,54,55]	-11.8426
Continue	-11.8437
▁callable	-11.8438
":[37,40,41	-11.8443
based	-11.8448
lxml	-11.845
Suite	-11.8455
colors	-11.8456
Random	-11.8458
TIMEOUT	-11.846
>.*)	-11.846
major	-11.847
catalog	-11.8471
openid	-11.8478
Variable	-11.8478
dynamic	-11.8481
urn	-11.8481
toolbar	-11.8481
▁select	-11.8482
Free	-11.8485
":[16,23	-11.8487
coin	-11.8489
Init	-11.8493
":[32,38	-11.8493
▁passed	-11.8497
":[51,52,53	-11.8499
":[70	-11.85
letter	-11.8505
pb	-11.851
▁{{	-11.8523
":[69,74	-11.8523
gateway	-11.854
":[44,45	-11.8541
▁Content	-11.8546
":[50	-11.8547
invoke	-11.8551
▁handle	-11.8555
Reader	-11.8558
Builtin	-11.8566
":[43,46,47	-11.8568
▁these	-11.8569
":[65	-11.8575
Layout	-11.8577
Win	-11.8577
Keyword	-11.8579
after	-11.858
▁OTHER	-11.858
":[26,27	-11.8585
depend	-11.8586
":[55,56,57	-11.8592
":[46,47	-11.8598
▁requests	-11.8607
pw	-11.861
Demo	-11.8611
▁methods	-11.8612
DateTime	-11.8616
▁development	-11.862
▁2010	-11.8621
":[37,43	-11.8625
,33,36	-11.8628
":[25,26	-11.863
":[17,25	-11.8634
GL	-11.8635
Decimal	-11.8637
":[41,42	-11.8645
Lock	-11.8649
resize	-11.8651
SoftLayer	-11.8651
Allow	-11.8652
Common	-11.8657
EVENT	-11.8658
inja	-11.8658
runtime	-11.866
Extra	-11.8665
expose	-11.8665
":[48,51,52	-11.8666
":[53	-11.8667
MONTH	-11.8669
BIGNUM	-11.8672
▁Args	-11.8672
ply	-11.8689
▁tuple	-11.8689
program	-11.869
":[22,23	-11.8699
":[60,61,62	-11.8713
bus	-11.8727
":[30,33,34	-11.8728
":[24,27,28	-11.8732
annotation	-11.8741
creation	-11.8743
Detect	-11.8745
traceback	-11.8749
":[9,11,1	-11.8749
published	-11.875
bound	-11.8751
Chart	-11.8752
Mail	-11.8756
bokeh	-11.8757
oscar	-11.8758
abstractmethod	-11.876
OB	-11.8761
▁messages	-11.8764
failures	-11.8767
":[44,45,46]	-11.8773
":[12,19	-11.8775
▁range	-11.8775
,105]	-11.8775
,18,19,20,21,22	-11.878
2012	-11.8783
,13,15,17,19,21	-11.8784
▁address	-11.8784
backup	-11.8785
":[7,8	-11.8788
Note	-11.8791
roles	-11.8792
press	-11.8794
runtests	-11.8798
mic	-11.8798
assertRaises	-11.8799
▁their	-11.8801
":[62,64	-11.8802
photo	-11.8804
:00	-11.882
Notification	-11.8822
bootstrap	-11.8823
":[19,26	-11.8825
":[4,9	-11.883
qual	-11.8838
":[54,57,58	-11.8839
Transaction	-11.884
bench	-11.884
coro	-11.8841
▁look	-11.8842
NUMBER	-11.8843
,21,22,23,24,25	-11.8847
▁free	-11.8848
▁hand	-11.885
▁associated	-11.8858
pvl	-11.8859
amount	-11.8866
":[23,24	-11.888
▁FROM	-11.8882
":[46,47,48]	-11.8885
":[1,3,5,13	-11.8887
":[18,21,22	-11.8896
Testing	-11.8899
OO	-11.8901
changed	-11.8906
Users	-11.8911
wrapped	-11.8916
vendor	-11.8916
intangible	-11.8918
▁WHE	-11.8918
":[1,3,5,7,13	-11.8918
ah	-11.8927
":[38,44	-11.8928
carrier	-11.8928
300	-11.893
Show	-11.8936
Shell	-11.8937
Worker	-11.8941
":[13,14,15,16]	-11.8941
calculate	-11.8943
RuntimeError	-11.8943
contain	-11.895
Impr	-11.8951
▁already	-11.8952
▁Parameters	-11.8953
viewer	-11.8966
Net	-11.8969
prob	-11.8972
datastore	-11.8979
ptr	-11.8982
":[63,68	-11.8993
dep	-11.8994
SSH	-11.8999
":[6,10	-11.9002
Socket	-11.9005
▁integer	-11.9017
hashlib	-11.9018
▁query	-11.9019
lint	-11.9019
":[31,37	-11.903
RequestContext	-11.9031
Remote	-11.9032
nested	-11.9033
":[4,6,6	-11.9034
##	-11.9037
":[8,12,3	-11.9043
ULAR	-11.9043
getRelated	-11.9046
":[4,5,6,7,8	-11.9061
,15,17	-11.9063
Operations	-11.9066
your	-11.9068
maya	-11.9071
":[52,53,54]	-11.9073
Var	-11.9075
listener	-11.9075
nyou	-11.9084
[1	-11.9086
,36,4	-11.9086
PHONE	-11.9089
9,	-11.9093
":[67,72	-11.9095
fact	-11.9096
logs	-11.9098
thumbnail	-11.91
prov	-11.9107
delta	-11.9111
`,	-11.9111
kill	-11.9114
":[27,28,29,30]	-11.9119
,16,19	-11.9124
Serial	-11.9127
USERNAME	-11.9128
misc	-11.9129
Reference	-11.9131
slot	-11.9131
states	-11.9132
SELECT	-11.9135
":[14,21	-11.9139
urlparse	-11.9141
▁errors	-11.9142
71	-11.9149
before	-11.9152
,46,	-11.9157
subscribe	-11.9162
ohn	-11.9174
,37,4	-11.9178
":[1,4,6,9	-11.9185
":[8,9	-11.9197
Processor	-11.9199
flash	-11.9199
own	-11.9203
":[66,68	-11.9207
":[64,66	-11.9216
soft	-11.9218
FIELD	-11.922
Lexer	-11.922
inc	-11.9221
Raw	-11.9225
5000	-11.9228
,20,23	-11.9228
":[30,31	-11.9229
":[21,22	-11.9231
":[1,3,6,9,12	-11.9235
Missing	-11.9236
▁various	-11.9241
CTX	-11.9243
":[103,104	-11.9243
upper	-11.9247
,10]	-11.9264
▁account	-11.9267
▁part	-11.9267
":[33,36,37	-11.9268
▁multiple	-11.9273
del	-11.9284
Rpc	-11.9288
ban	-11.929
ult	-11.9294
simplejson	-11.9302
":[59,63	-11.9303
":[72,73,74	-11.9305
forum	-11.9305
Dialog	-11.9307
Resources	-11.9307
▁go	-11.9309
Channel	-11.9309
entity	-11.9313
slack	-11.9317
avatar	-11.9318
Unknown	-11.9318
cam	-11.9319
Timeout	-11.9319
ajax	-11.9319
":[26,27,28,29]	-11.9321
MESSAGE	-11.9321
":[17,18,19,20]	-11.9327
ocp	-11.9327
Ext	-11.9336
▁later	-11.9339
128	-11.9339
MIME	-11.9341
":[10,17	-11.936
":[14,18,2	-11.9361
encoded	-11.9362
▁manage	-11.9363
ERS	-11.9364
▁parameter	-11.9365
deprecated	-11.9365
ious	-11.9368
records	-11.9372
IndexView	-11.9374
addTest	-11.9376
":[12,21	-11.9379
exist	-11.9379
Bot	-11.9382
each	-11.9384
Hy	-11.9391
openmdao	-11.9393
Boolean	-11.9393
Blog	-11.9398
Fake	-11.9399
TestRunner	-11.9401
bug	-11.9403
▁dictionary	-11.9406
####	-11.9409
uestion	-11.9409
":[28,34	-11.9411
MODE	-11.9417
uerySet	-11.9418
CLIENT	-11.9419
analysis	-11.9421
79,8	-11.9423
Exec	-11.9425
":[6,10,4	-11.9428
▁public	-11.9434
▁functionality	-11.9437
rodian	-11.9439
":[51,54,55	-11.945
":[13,21	-11.945
FOR	-11.9454
▁reg	-11.9458
SHA	-11.9459
":[16,19,20	-11.9466
▁platform	-11.9468
vol	-11.9468
CMS	-11.9469
developer	-11.9471
=%	-11.9476
international	-11.9476
▁Do	-11.9477
":[20,21	-11.9477
cal	-11.9481
":[17,18,19	-11.9483
":[39,40	-11.9485
cipher	-11.9491
":[42,45,46	-11.9496
Diff	-11.95
Adapter	-11.9504
":[50,51	-11.9508
boolean	-11.9509
Actor	-11.951
":[23,24,25,26]	-11.9512
tenant	-11.9513
Array	-11.9514
Header	-11.9521
Fixture	-11.9522
":[9,10,11,12]	-11.9524
Export	-11.9527
ILITY	-11.9528
combine	-11.9532
THER	-11.9533
fun	-11.9548
algorithms	-11.9551
hutt	-11.9553
selection	-11.9556
":[57	-11.9559
▁within	-11.9575
,12,13,14,15,16	-11.9581
,107]	-11.959
scene	-11.9594
PIPE	-11.9599
alt	-11.9602
disable	-11.9605
white	-11.9608
LIST	-11.961
docker	-11.9613
Write	-11.9619
Display	-11.9624
schedule	-11.9627
trigger	-11.9628
operlyConfigured	-11.9631
":[42,43	-11.9633
enhance	-11.9637
▁directly	-11.9639
CHO	-11.9639
▁modify	-11.9639
▁exists	-11.9645
ium	-11.9646
▁included	-11.9653
Opt	-11.9654
crypto	-11.9656
,17,19	-11.9669
":[56,57,58]	-11.9676
":[15,22	-11.9688
blocks	-11.9694
mel	-11.9702
Frame	-11.9709
optimize	-11.971
":[43,49	-11.9711
Drop	-11.9711
Volume	-11.9715
":[68,70	-11.9716
getcwd	-11.972
cleanup	-11.9725
Dataset	-11.9726
Choice	-11.9726
":[41	-11.9727
atom	-11.9728
mapper	-11.973
RS	-11.9733
plug	-11.9733
URE	-11.9734
▁control	-11.9737
chassis	-11.9739
premium	-11.974
cart	-11.9746
,43,45,47	-11.9749
validator	-11.9755
":[1,3,12	-11.9767
notify	-11.9768
(\\	-11.9769
▁imported	-11.9771
":[17,24	-11.9773
":[1,3,5,7,11	-11.9777
":[45,46	-11.9779
▁Console	-11.9785
codegen	-11.9787
Constraint	-11.9789
▁Mo	-11.979
2011	-11.9793
sep	-11.9797
,56,58	-11.9804
":[39,45	-11.981
shed	-11.981
":[10,15,2	-11.9812
solution	-11.9815
,13,15,17,19	-11.9818
Execution	-11.9824
Off	-11.9828
LANGUAGE	-11.9829
syn	-11.983
▁seconds	-11.983
staff	-11.9831
▁being	-11.9833
NULL	-11.9833
":[4,10	-11.9836
Provides	-11.9844
sky	-11.9845
closed	-11.9847
gettext	-11.9855
MSG	-11.9863
sfa	-11.9865
share	-11.9868
codecs	-11.9871
":[19,20,22]	-11.9874
▁what	-11.9877
▁our	-11.9885
":[1,3,5,7,14	-11.9887
WITHOUT	-11.9888
parsed	-11.9903
":[1,3,5,20	-11.9904
":[67,71	-11.9909
Stop	-11.9909
\"]	-11.9911
TLS	-11.9911
mag	-11.9916
thrift	-11.9916
neo	-11.9921
...\	-11.9921
normalize	-11.9922
▁...\	-11.9926
translate	-11.9927
NullHandler	-11.9927
djangobmf	-11.9928
Equal	-11.9929
scipy	-11.9934
guard	-11.9934
parameter	-11.9935
FLAGS	-11.9935
Pipeline	-11.9936
monkey	-11.9938
destination	-11.9939
▁replace	-11.9942
▁always	-11.9948
blaster	-11.9949
":[60,64	-11.996
Details	-11.9961
EMENT	-11.9965
usr	-11.9965
accept	-11.9967
timer	-11.9967
":[13,14	-11.9967
Domain	-11.9967
▁definition	-11.9968
":[20,23,24	-11.9972
":[23,26,27	-11.9973
":[34,40	-11.9977
,19,24	-11.9978
":[1,3,5,7,12	-11.9981
,26,29	-11.9982
ABLE	-11.9983
basestring	-11.9985
might	-11.9986
1(	-11.9988
notifications	-11.9989
Permissions	-11.9999
,21,24	-12.0005
authenticate	-12.0016
▁implements	-12.0019
columns	-12.0025
\\\\	-12.0025
":"0002_	-12.0027
Registry	-12.003
Temp	-12.0032
Home	-12.0032
shipping	-12.0033
theano	-12.0034
Hook	-12.0037
512	-12.0038
Html	-12.004
draw	-12.0041
,43,44,45,46,47	-12.0041
":[1,3,6,8,10,12	-12.0043
Argument	-12.0045
series	-12.0047
attempt	-12.0049
▁recent	-12.0054
▁href	-12.0054
intersphinx	-12.0055
pd	-12.0062
une	-12.0066
EE	-12.0067
bst	-12.007
":[33,34,36	-12.0071
":[12,13,14	-12.0077
,37,39	-12.0084
about	-12.0084
":[36,39,40	-12.0122
":[37,38	-12.0127
":[32,33,34,35]	-12.0131
,89,9	-12.0134
":[29,35	-12.0139
Validator	-12.0144
":[15,16,17	-12.0144
Back	-12.0144
Writer	-12.0152
UL	-12.0154
ldap	-12.0157
▁automatically	-12.016
":[6,13	-12.016
adapter	-12.016
Utils	-12.0165
chat	-12.0171
stdin	-12.018
":[17,18	-12.0185
Public	-12.0189
":[62,63,64	-12.0191
▁Team	-12.0194
▁own	-12.0207
":[66,71	-12.021
ology	-12.021
▁*)	-12.0217
definition	-12.022
Cli	-12.0222
":[68,72	-12.0222
Contact	-12.0234
ADMIN	-12.0234
":[18,19,20,21]	-12.0239
":[67,69	-12.0242
Connect	-12.0242
omb	-12.0242
":[9,10,11	-12.0244
Render	-12.0246
":[91,9	-12.025
":[8,10,3	-12.025
Register	-12.0251
focus	-12.0256
learning	-12.0257
Mix	-12.0257
angle	-12.0258
dress	-12.026
":[25,33	-12.0262
▁CLK	-12.0267
▁including	-12.0267
curr	-12.0268
googleads	-12.0272
balanced	-12.0273
ua	-12.0274
":[9,16	-12.0282
station	-12.0283
vars	-12.0292
Cat	-12.0293
repl	-12.0297
era	-12.0298
,40,41,42,43,44	-12.031
endswith	-12.0313
choice	-12.0313
under	-12.032
":[48,49	-12.033
1.3	-12.0335
LOW	-12.0345
refresh	-12.0347
pyglet	-12.0349
SOURCE	-12.0351
libraries	-12.0352
postgresql	-12.0357
operator	-12.0358
Range	-12.0358
axis	-12.0363
stock	-12.0363
":[12,20	-12.0367
▁perform	-12.0367
":[11,12,13,14]	-12.0369
CONNECTION	-12.0369
serv	-12.0372
PROVIDE	-12.0373
factor	-12.0374
▁utilities	-12.0375
":[17,20,21	-12.0375
▁know	-12.0376
▁fsm	-12.0377
▁operation	-12.0382
']\	-12.0386
za	-12.0386
httplib	-12.0396
Plan	-12.0405
":[62,66	-12.0406
samples	-12.0415
":[50,51,52]	-12.0428
ending	-12.0437
MR	-12.0439
UNI	-12.044
":[65,67	-12.0445
cave	-12.0449
":[40,46	-12.0453
WORK	-12.0455
today	-12.0456
COMMAND	-12.0457
plus	-12.0458
Member	-12.0458
,32,34	-12.0459
walk	-12.0459
":[45,48,49	-12.046
attach	-12.0464
hit	-12.0468
Backup	-12.0471
":[59,62,63	-12.0472
Debug	-12.0473
XXX	-12.0473
Current	-12.0475
GafferScene	-12.0475
sudo	-12.0477
Find	-12.0479
IMPLIED	-12.0479
":[38,39	-12.048
best	-12.0481
":[14,17,18	-12.0482
encoder	-12.0483
ARTIC	-12.0484
":[106]	-12.0486
▁Utilities	-12.0486
":[27,28	-12.0488
yes	-12.0493
websocket	-12.0494
,27,30	-12.0498
":[18,25	-12.0505
===\	-12.052
":[28,30	-12.0525
":[53,54	-12.0528
jar	-12.0528
Max	-12.0538
lot	-12.0544
docx	-12.0548
":[30,31,32,33]	-12.0548
2.3	-12.0548
▁accept	-12.055
":[75,76,77	-12.0552
Creates	-12.0559
":[8,9,10,11]	-12.0561
sklearn	-12.0564
Rest	-12.0573
Mac	-12.0574
ACCESS	-12.0575
Timer	-12.0577
desktop	-12.0577
Env	-12.0578
Machine	-12.0581
pyramid	-12.0584
":[15,16	-12.0587
behavior	-12.0587
▁Be	-12.0593
bitcoin	-12.0596
FITNESS	-12.0597
receiver	-12.0599
LoadFromStorage	-12.06
===========	-12.06
(1,	-12.0612
rail	-12.0627
networkx	-12.0629
])	-12.0635
1234	-12.0637
":[67,68,69	-12.0638
":[31,34,36	-12.0641
Level	-12.065
":[68,73	-12.0651
wing	-12.0652
inst	-12.0658
hq	-12.0659
Byte	-12.067
capture	-12.0674
using	-12.0674
pod	-12.0676
":[74,75,76	-12.0678
digits	-12.0682
VALID	-12.0686
GafferUI	-12.0687
effect	-12.0688
ERR	-12.069
WT	-12.0691
klass	-12.0697
APPLICATION	-12.0697
Contains	-12.0705
":[6,8,5	-12.0705
,32,37	-12.0705
ServiceLocator	-12.0706
\">\	-12.0706
YAML	-12.0707
reports	-12.0712
":[49,52,53	-12.0715
lam	-12.0724
ddi	-12.0726
":[47,50,51	-12.073
trial	-12.0741
4.0	-12.0747
":[41,44,45	-12.0749
▁Dynamic	-12.0749
World	-12.0749
":[13,17,2	-12.076
,23,24,25,26,27	-12.0764
▁events	-12.0766
,46,49,52	-12.0767
,41,4	-12.0769
":[1,3,13	-12.0773
foobar	-12.0779
":[9,17	-12.0781
priority	-12.0787
":[18,20,2	-12.0788
headline	-12.0797
Exit	-12.0805
":[20,21,22	-12.0812
meter	-12.0817
":[35,36	-12.082
Expect	-12.0823
-1:0]	-12.0823
▁PURPOSE	-12.0823
painting	-12.0824
contributors	-12.0826
":[55,58,59	-12.0836
configured	-12.0836
importlib	-12.0842
101	-12.0845
":[59	-12.0853
CHECK	-12.0855
,18,21	-12.0856
,55,58	-12.0857
,14,16,18	-12.0858
Prober	-12.0868
lamp	-12.0873
":[71,76	-12.0881
":[72,76	-12.0882
":[20,27	-12.0884
])\	-12.0886
":[76,81	-12.0886
>[	-12.089
vel	-12.0893
Sitemap	-12.0908
▁1,	-12.0909
AA	-12.0909
pick	-12.0909
scheme	-12.091
relationship	-12.091
End	-12.0913
":[25,26,27,28]	-12.0916
activity	-12.0918
geom	-12.0919
iterable	-12.092
":[1,8	-12.0923
HasTraits	-12.0925
matches	-12.0926
STRING	-12.0927
spam	-12.0928
flavor	-12.0929
health	-12.093
reply	-12.093
retval	-12.0933
Impl	-12.0935
foaf	-12.0937
roll	-12.0938
Traceback	-12.0938
INCLUDING	-12.0938
,35,38	-12.0938
▁many	-12.0939
":[1,12	-12.0941
5.0	-12.0946
lica	-12.0957
▁both	-12.0961
Detail	-12.0963
Popen	-12.0966
,16,19,22,25,28	-12.0987
":[64,68	-12.0988
norm	-12.099
connections	-12.1008
FAIL	-12.1017
":[58,61,62	-12.1017
":[25,26,27	-12.1023
Direct	-12.1023
INDEX	-12.1026
touch	-12.1028
relative	-12.1032
123456	-12.1035
more	-12.1037
finish	-12.1037
VALUE	-12.1038
Agent	-12.1038
emergency	-12.1038
hidden	-12.1041
creative	-12.1044
IVE	-12.1044
HEADER	-12.1044
delegate	-12.1047
pybrain	-12.1048
":[25,32	-12.1053
▁most	-12.1054
▁appear	-12.1054
big	-12.1055
race	-12.1062
loaders	-12.1062
clock	-12.1063
van	-12.1066
DNS	-12.1067
orig	-12.1071
RSA	-12.1074
":[1,5,8	-12.1079
pretty	-12.108
":[79,80,81	-12.1083
templatetags	-12.1087
cket	-12.1093
ATIONS	-12.1095
,34,4	-12.1096
":[76,77,78	-12.11
":[11,12	-12.1106
Edit	-12.1122
SESSION	-12.1124
baz	-12.1124
":[66,70	-12.113
cached	-12.1134
IPython	-12.1135
META	-12.1136
":[6,10,5	-12.1142
▁supported	-12.1148
glyph	-12.1153
Monitor	-12.1154
TCP	-12.1155
compare	-12.1156
hyper	-12.1159
selected	-12.1161
":[54,55	-12.1162
vehicle	-12.1163
":[13,20	-12.1165
▁try	-12.1173
NON	-12.1173
melee	-12.1174
,22,25	-12.1195
getenv	-12.1195
▁General	-12.1196
incom	-12.1202
LIB	-12.1211
solve	-12.1214
chars	-12.1224
":[63,64,65]	-12.1229
":[52,55,56	-12.1231
▁Pi	-12.1231
":[52,53	-12.1233
":[24,25,26	-12.1235
":[40,41	-12.1237
expr	-12.1238
":[41,47	-12.1243
":[11,20	-12.1244
":[42,48	-12.1251
Bundle	-12.1265
▁reference	-12.1267
statistic	-12.1269
EA	-12.1269
codec	-12.127
defer	-12.1274
Split	-12.1278
":[5,6,8,10	-12.1279
CREATE	-12.128
Place	-12.128
":[93,9	-12.1282
drive	-12.1283
mpl	-12.1283
,14,17,20	-12.1286
PANEL	-12.1286
Management	-12.129
":[104,105	-12.129
▁Foundation	-12.1291
▁MERCHANTABILITY	-12.1291
▁SHA	-12.1294
":[60,63,64	-12.131
)(	-12.1317
":[40,41,43,45	-12.1319
":[19,20,21	-12.132
volumes	-12.133
cover	-12.1334
scopes	-12.1338
NE	-12.1344
▁optional	-12.1349
GUI	-12.1351
definitions	-12.1352
▁0,	-12.1357
members	-12.137
":[77,78,79	-12.1374
square	-12.1376
":[24,25,26,27]	-12.1384
HDIR	-12.1384
DELETE	-12.1384
bgp	-12.1385
READ	-12.1387
Constant	-12.1387
OLD	-12.139
Handle	-12.1391
Section	-12.1392
destroy	-12.1396
":[31,38	-12.14
certificate	-12.14
KeyError	-12.1403
Click	-12.1406
=====	-12.1407
ace	-12.1408
":[6,7,8,9,10,11	-12.1409
▁gets	-12.1411
▁removed	-12.1412
elite	-12.1416
,28,29,30,31,32	-12.1418
TYPES	-12.1423
,33,34,35,36,37	-12.1426
DOM	-12.1428
":[4,7,1	-12.143
ason	-12.1431
authentication	-12.1447
000000	-12.145
":[63	-12.1456
oe	-12.1457
[1]	-12.1467
mount	-12.1468
":[6,9,1	-12.1473
1\\	-12.1475
":[12,16,3	-12.1477
600	-12.1478
":[59,60,61]	-12.1479
TestModel	-12.148
▁Public	-12.148
":[66,67,68]	-12.1481
,25,28	-12.1481
Sol	-12.1482
OrderedDict	-12.1493
coord	-12.1497
uff	-12.1499
VIEW	-12.1501
":[7,11,2	-12.1502
":[36,37	-12.1502
indices	-12.1502
Logging	-12.1503
Push	-12.1509
Cookie	-12.1509
History	-12.151
{4}	-12.1512
Workflow	-12.1515
scrape	-12.1517
sensor	-12.1521
Markdown	-12.1523
hour	-12.1523
":[8,16	-12.1524
NORMAL	-12.1528
Good	-12.1531
▁POSIX	-12.1533
▁during	-12.1533
▁would	-12.1533
STATE	-12.1534
":[7,9,24]	-12.1535
supybot	-12.1538
":[1,4,8	-12.1539
":[50,53,54	-12.1544
started	-12.1547
============	-12.1553
,21,23,25	-12.1563
HERE	-12.1563
":[30,32	-12.1572
▁whe	-12.1575
controllers	-12.1582
▁Can	-12.1591
":[15,19,2	-12.1592
":[46,52	-12.1594
▁2011	-12.1605
,12,14,16,18,20	-12.1612
TestBase	-12.1615
Stat	-12.1615
composite	-12.162
Schedule	-12.1621
":[70,72	-12.1623
":[24,27,29,31	-12.1625
candidate	-12.1628
categories	-12.1629
":[26,27,29	-12.1632
Program	-12.1632
shutil	-12.1633
Directory	-12.1638
Repository	-12.164
Markup	-12.164
Sync	-12.1641
1.4	-12.1642
▁provide	-12.1644
82	-12.1645
Celery	-12.1647
design	-12.1647
":[99,102	-12.165
":[72,75,76	-12.1651
Dependency	-12.1652
functional	-12.1652
Card	-12.1655
Implementation	-12.1657
nthat	-12.1657
twilek	-12.1658
,51,53	-12.1662
▁deal	-12.1663
,36,38,40	-12.1669
":[1,5,7,9	-12.1674
dna	-12.1685
rendered	-12.1685
":[10,18	-12.1686
selector	-12.1691
,12,15,18	-12.1704
":[11,18	-12.1716
8000	-12.1721
paginator	-12.1727
Finally	-12.1738
shd	-12.1743
":[31,32,33,34]	-12.1749
pending	-12.1751
Bool	-12.1751
DOMAIN	-12.1752
calendar	-12.1754
":[1,3,5,7,9,12	-12.1759
Flag	-12.1759
performance	-12.1763
suggest	-12.1765
Integration	-12.1766
8080	-12.1767
Anonymous	-12.1768
week	-12.1774
arc	-12.1778
wtforms	-12.1778
wee	-12.1779
WITH	-12.1779
rdflib	-12.1781
IOError	-12.1782
▁2009	-12.1782
indent	-12.1783
Excel	-12.1784
capacitor	-12.1784
":[49,50,52,54	-12.1784
":"0.6	-12.1792
,25,31	-12.1794
etree	-12.1805
8.0	-12.1816
▁Linux	-12.1824
tip	-12.1826
":[8,10,5	-12.183
issues	-12.183
":[4,8,4	-12.1831
Other	-12.1834
":[72,77	-12.1838
Use	-12.1845
":[4,6,8	-12.1845
importer	-12.1846
":[48,54	-12.1851
":[45,51	-12.1852
Features	-12.186
Validation	-12.1864
":[69,71	-12.1873
":[71,73	-12.1874
ENABLED	-12.1877
lino	-12.1878
php	-12.1882
assignment	-12.1883
analyzer	-12.1884
respond	-12.1888
,42,48	-12.1892
acl	-12.1893
":[22,25,27]	-12.1894
LIMIT	-12.1894
frontend	-12.1894
camera	-12.1895
Issue	-12.1895
scenario	-12.1896
":[6,8,6	-12.1897
Pattern	-12.1897
rtd	-12.1898
three	-12.1901
stuff	-12.1906
Defines	-12.1906
similar	-12.1907
":[35,41	-12.1908
credit	-12.1916
▁specification	-12.1919
,35,4	-12.1924
connected	-12.1929
~~~~~~~~~~~~~~~~	-12.1931
networks	-12.1933
ball	-12.1938
:[2,3,4,5,6,7,8]	-12.1941
begin	-12.1948
,31,37	-12.1952
distribute	-12.1965
storm	-12.1969
Save	-12.197
\":\"	-12.1977
deletion	-12.1981
":[42,43,44,45	-12.1986
CHAR	-12.1992
=1	-12.2006
,40,46	-12.2006
":[6,8,7	-12.2008
will	-12.2009
chi	-12.2011
Poll	-12.2016
jpg	-12.2016
xlsx	-12.2018
digest	-12.2018
,31,32,33,34,35	-12.2024
Setup	-12.2025
,23,25,27,29,31	-12.2025
ticket	-12.2028
RequestHandler	-12.2031
vistrails	-12.2033
▁because	-12.2037
▁exposes	-12.2037
▁conditions	-12.2037
military	-12.2038
":[41,42,43,44	-12.2045
Cha	-12.2058
▁\"%	-12.2065
▁compatibility	-12.2073
":[36,42	-12.208
sequence	-12.2081
":[16,17	-12.209
,29,35	-12.209
assertIs	-12.2094
BaseTestCase	-12.2104
trait	-12.2109
":[47,53	-12.2125
":[75,77	-12.2133
,39,41,43	-12.2134
GPIO	-12.2135
teardown	-12.2142
":[1,9	-12.2143
ames	-12.2144
ICES	-12.2149
Child	-12.2149
snippet	-12.215
":"0.0.0.0	-12.2151
availability	-12.2151
":[10,11,13,15,1	-12.2151
etLevel	-12.2151
cupy	-12.2152
PAGE	-12.2154
slave	-12.2158
camp	-12.2158
nltk	-12.2159
paging	-12.2164
▁utility	-12.2166
▁MacOS	-12.2167
good	-12.2167
calc	-12.2172
":[12,13,14,19	-12.2179
":[13,22	-12.2191
":[8,10,4	-12.2191
,38,39,40,41,42	-12.2193
,21,27	-12.2201
▁copies	-12.2207
":[1,3,6,9,12,15	-12.2209
,11,13,15	-12.2209
":[1,3,6,9,11	-12.2215
,37,40	-12.2218
":[56	-12.2218
":[58,59,61	-12.2228
":[1,3,14	-12.223
,26,28,30,32,34	-12.2234
,40,45	-12.2234
":[39,40,41,42]	-12.224
":[45,46,47,48]	-12.2245
":[77,82	-12.2245
rct	-12.2247
":[75,79	-12.2252
algorithm	-12.2252
orchestra	-12.2258
":[68,69,70]	-12.2259
~~~~~~~~~~~~	-12.2259
Region	-12.2261
progress	-12.2263
pyjamas	-12.2263
":[72,74	-12.2263
erry	-12.2271
Authorization	-12.2273
duration	-12.2276
OPEN	-12.2277
Translation	-12.2277
rfc	-12.2279
enc	-12.2284
":[7,13	-12.2284
observable	-12.2288
Font	-12.2292
PRE	-12.2295
garden	-12.2299
trandoshan	-12.23
freq	-12.2311
tent	-12.2313
tracker	-12.2319
▁returned	-12.2324
Stats	-12.2325
":[19,27	-12.2342
,56,63,70	-12.235
2000	-12.2368
":[38,39,40,41]	-12.2378
Slug	-12.2378
uck	-12.2385
,23,29	-12.2387
tile	-12.2388
BR	-12.2392
,17,19,21,23,25	-12.2395
":[78,79,80	-12.2398
flush	-12.24
predict	-12.2401
Distribution	-12.2405
executor	-12.2407
numeric	-12.241
crash	-12.2411
recv	-12.2412
Geometry	-12.2412
transition	-12.2415
story	-12.2416
":[27,34	-12.2418
persist	-12.242
,43,50	-12.2424
couch	-12.2426
people	-12.243
Initialize	-12.2431
▁WARRANTY	-12.2432
":[14,22	-12.244
deep	-12.2444
Async	-12.2455
FORM	-12.2456
robe	-12.2459
,28,30,32	-12.2462
":[14,18,3	-12.2464
":[63,64	-12.2465
,22,23]	-12.2481
crypt	-12.2488
,50,51,52,53,54	-12.2497
,26,28	-12.2502
,17,19,21	-12.251
":[8,12,4	-12.251
stamp	-12.2528
,13,15]	-12.2531
provision	-12.2534
":[74,76	-12.2534
poly	-12.254
SERVICE	-12.2544
CONTENT	-12.2547
Matcher	-12.2549
previous	-12.255
werkzeug	-12.255
":[57,60,61	-12.2551
namedtuple	-12.2553
routing	-12.2554
exact	-12.2555
2010	-12.2555
queries	-12.2556
========	-12.2557
ArgumentParser	-12.2558
speed	-12.256
javascript	-12.2563
▁GNU	-12.2567
▁against	-12.2567
NoArgsCommand	-12.2567
▁whole	-12.2568
ense	-12.2576
1.9	-12.2587
,40,48	-12.2588
Col	-12.2597
":[9,14,15	-12.2601
tls	-12.2614
prog	-12.2616
":[10,14,3	-12.263
~~~~~~~~~~~~~~	-12.2632
patcher	-12.2633
PK	-12.2645
cwd	-12.2645
":[74,79	-12.265
":[9,13,2	-12.2657
,108]	-12.2659
External	-12.2663
PYTHON	-12.2666
":[54,60	-12.2669
xmlrpc	-12.2674
,24,27	-12.2676
":[5,6,8,10,12	-12.2679
,31,36	-12.2682
":[96,99	-12.2683
cassandra	-12.2683
SUB	-12.2689
span	-12.2691
Failure	-12.2692
":[4,6,7	-12.2693
":[29,36	-12.2701
chemistry	-12.2705
":[65,66,68	-12.2711
":[69	-12.2715
pbr	-12.2718
,16,18,20,22,24	-12.2732
tax	-12.2735
startup	-12.2737
runserver	-12.2745
android	-12.2748
":[56,59,60	-12.2771
development	-12.2775
BaseTest	-12.2779
,46,47,48,49,50	-12.279
marker	-12.2792
":[6,7,8	-12.2796
Shift	-12.2801
readonly	-12.2805
":[7,9,2	-12.2809
":[14,15,16	-12.281
":[73,75	-12.281
recipient	-12.281
anonymous	-12.2811
,40,42,44	-12.2813
Composite	-12.2813
Payment	-12.2813
Parent	-12.2816
decrypt	-12.2816
highlight	-12.2822
Go	-12.2822
lambda	-12.2824
INSERT	-12.2826
Counter	-12.2826
Learn	-12.2826
Arg	-12.2827
":[18,26	-12.2828
SPACE	-12.283
VAR	-12.2831
background	-12.2831
daemon	-12.2833
fuel	-12.2833
":[26,33	-12.2833
transfer	-12.2836
unpack	-12.2837
Title	-12.2837
collectible	-12.2841
LIMITED	-12.2843
▁currently	-12.2846
iam	-12.2847
vii	-12.2859
":[36,37,38	-12.2875
,14,16	-12.2882
kay	-12.2891
":[16,17,18	-12.2897
,30,32	-12.2907
":[24,28,3	-12.2911
":[15,23	-12.2913
":[16,18,2	-12.2914
,11,13]	-12.2922
%%	-12.2929
timeline	-12.293
":[77,81	-12.2932
exempt	-12.2932
CSS	-12.2942
":[43,44	-12.2945
":[49,50,51,52	-12.2946
strategy	-12.2946
WebSocket	-12.2946
Disk	-12.2951
amqp	-12.2951
Pickle	-12.2953
Lazy	-12.2957
factories	-12.2959
TARGET	-12.2959
break	-12.296
ConfigParser	-12.2961
Cluster	-12.2965
raven	-12.2966
>[-\\	-12.2967
Match	-12.297
":[5,6,7]	-12.297
percent	-12.297
guess	-12.2974
together	-12.2975
workbench	-12.2976
":[63,66,67	-12.2979
▁BUT	-12.2983
Chris	-12.2984
warren	-12.2985
PIL	-12.2992
direction	-12.2994
,45,46,47,48,49	-12.2995
,41,48	-12.3004
":[33,39	-12.3015
bash	-12.3016
chan	-12.3017
statsd	-12.302
▁subclass	-12.3021
stage	-12.3024
":[56,57	-12.303
Console	-12.3032
when	-12.3041
":[75,80	-12.3049
-------------	-12.3054
":[4,5,6,7,8]	-12.3062
shall	-12.3071
Video	-12.3074
":[78,82	-12.3075
":[21,29	-12.3075
PBX	-12.3084
shadow	-12.3095
arwin	-12.3099
,27,30,33,36,39	-12.3102
":[8,10,6	-12.3103
Length	-12.3109
restore	-12.3113
~~~~~~~~	-12.3113
interpreter	-12.3114
":[97,100	-12.3117
packet	-12.3117
":[74,78	-12.3118
routine	-12.3118
,22,29	-12.3125
reward	-12.3133
":[1,4,10	-12.314
DIRS	-12.3142
,21,26	-12.3148
":[23,30	-12.3168
,12,14,16	-12.3169
7,24,31,38,47	-12.3184
Your	-12.3192
,28,34	-12.3192
":[61,62,63]	-12.3211
,32,35	-12.3217
":[36,37,38,39]	-12.3228
Help	-12.3232
":[44,50	-12.3233
bob	-12.3234
Unique	-12.3236
,16,17,18,19,20	-12.3236
":[12,13,14,15	-12.3236
":[6,7,9,11	-12.3237
deliver	-12.3243
repeat	-12.3246
START	-12.3247
PACKAGE	-12.325
mgr	-12.3254
plotting	-12.3256
Release	-12.3257
Found	-12.3259
avg	-12.3263
duplicate	-12.3263
":[4,11	-12.3266
toolchain	-12.3266
[0]	-12.3268
company	-12.3268
Skip	-12.327
":[53,56,57	-12.3271
▁COPYRIGHT	-12.3271
▁things	-12.3272
":[31,34,36,38	-12.3273
Player	-12.3275
":[29,31	-12.3281
interact	-12.329
ttl	-12.33
assets	-12.3315
":[23,24,25	-12.3317
notes	-12.3348
ansi	-12.3361
002	-12.3362
":[7,11,5	-12.337
gnu	-12.3371
":[34,35,36,37]	-12.3375
LOCAL	-12.3381
AUTO	-12.3384
compose	-12.3385
fancy	-12.3388
Discover	-12.3395
vlan	-12.3395
entries	-12.3398
CELERY	-12.3399
friend	-12.3399
relocate	-12.34
Publish	-12.34
":[1,4,9	-12.3401
packaging	-12.3406
Twitter	-12.341
regular	-12.3413
memcached	-12.3414
":[8,9,11,13,15	-12.3414
howto	-12.3417
":[7,8,10,12,14	-12.3418
bank	-12.3419
pcd	-12.3419
Checker	-12.342
belt	-12.342
":[8,10,7	-12.3421
pyface	-12.3421
▁portion	-12.3422
diag	-12.3426
▁around	-12.343
,21,25	-12.3437
INGS	-12.3443
,20,22,24	-12.3452
~~~~~~~~~~~~~~~	-12.3454
":[24,31	-12.3462
":[13,16,17	-12.3464
":[67,70,71	-12.3479
manifest	-12.35
▁limitation	-12.3503
":[19,22,23	-12.3506
":[73,78	-12.3508
Attachment	-12.3521
,31,33,35,37	-12.3524
titude	-12.3534
ObjectType	-12.3538
":"0003_	-12.3541
dimension	-12.3546
:[14,15,16,17,18	-12.3546
TRANS	-12.355
death	-12.3553
":[1,3,5,14,16	-12.3553
DECIMAL	-12.3554
ENV	-12.3556
measure	-12.3557
authorization	-12.3558
,22,3	-12.3559
iterator	-12.3559
street	-12.3559
kivy	-12.356
Daniel	-12.3565
rvester	-12.3566
▁permit	-12.3567
▁while	-12.3567
moncal	-12.3568
David	-12.3568
HOLDERS	-12.3568
hot	-12.357
wikia	-12.3571
StringField	-12.3573
":[106,107	-12.3576
bee	-12.3578
Plot	-12.3578
ServerError	-12.3579
":[7,8,9	-12.359
":[62,65,66	-12.3598
":[2,4,2	-12.3599
,36,41	-12.3603
engineer	-12.3609
Dir	-12.3623
,29,30]	-12.3627
Will	-12.3627
callable	-12.363
ami	-12.3631
():	-12.3634
":[29,30,31,32]	-12.3644
documentation	-12.3653
":[33,37,4	-12.3654
which	-12.3657
cancel	-12.3672
":[37,38,39,40]	-12.3678
,39,45	-12.3679
▁3.2	-12.3684
proj	-12.3685
Dispatcher	-12.3692
Empty	-12.3693
Decorator	-12.3697
NEW	-12.3698
DOWN	-12.3698
":[37,44	-12.3702
directive	-12.3704
communication	-12.3707
Browser	-12.3709
visual	-12.371
":"0.0.1	-12.3715
▁please	-12.3719
▁3.5	-12.3719
PluginInfo	-12.372
:`~	-12.3721
party	-12.3723
,55,56,57,58,59	-12.3737
take	-12.3765
Trans	-12.3766
":[16,20,2	-12.3775
Maya	-12.3783
fish	-12.3787
Out	-12.379
":[21,22,23	-12.3791
":[27,28,29	-12.3791
CASCADE	-12.3812
":[76,80	-12.3819
charset	-12.3828
CompareLtE	-12.3835
grammar	-12.3838
Magic	-12.3839
":[38,45	-12.384
://127.0.0.1:	-12.3843
Identity	-12.3845
":[79,81	-12.3846
Matt	-12.3849
,7,9,11,13,15,17	-12.385
smtp	-12.3851
PLUGIN	-12.3852
grant	-12.3852
WARNING	-12.3854
floating	-12.3857
Clean	-12.3857
scalar	-12.3861
restructuredtext	-12.3864
gwt	-12.3865
zope	-12.3866
":[64,67,68	-12.3866
pole	-12.3871
▁xmlns	-12.3873
CONTRACT	-12.3873
▁2016	-12.3873
CLAIM	-12.3873
▁DAMAGES	-12.3873
APIView	-12.3875
disease	-12.3875
":[1,3,6,8,1	-12.3875
individual	-12.388
Kit	-12.3881
gcloud	-12.3881
":[48,49,50,51	-12.3882
GEOS	-12.3883
subscriber	-12.3886
":[23,27,3	-12.3889
0-9	-12.39
ContentType	-12.3911
subparser	-12.3916
,22,27	-12.3926
,65,68	-12.393
,16,18,20	-12.3939
volve	-12.3957
,27,29,31,33	-12.3962
":[64,65,66]	-12.397
UUID	-12.3978
":[35,36,37	-12.3983
":[79,84	-12.3984
":[73,74,75]	-12.3991
itertools	-12.3994
CreateView	-12.3994
TestLoader	-12.3997
":[65,66,67]	-12.3998
Vector	-12.4004
Classifier	-12.4007
Linear	-12.4008
":[12,15,16	-12.401
frozenset	-12.4011
Board	-12.4011
":[21,28	-12.4015
HTTPServer	-12.4015
,12,14]	-12.4019
ALIAS	-12.4019
":[19,28	-12.402
ilent	-12.4021
Scenario	-12.4021
dependent	-12.4023
swagger	-12.4025
,24,32	-12.4025
GetService	-12.4026
Administrators	-12.4029
▁ARISING	-12.4029
▁TORT	-12.4029
minor	-12.4029
FileField	-12.403
cmdline	-12.4031
▁cannot	-12.4034
FILES	-12.4039
▁BN	-12.404
(0,	-12.404
":[11,12,13	-12.404
turn	-12.4043
":[83,84,85	-12.406
":[1,3,7,9	-12.4063
linear	-12.4068
,14,16]	-12.4074
":[40,41,42,43	-12.4075
entities	-12.4081
---------------	-12.4119
":[61,64,65	-12.4123
Software	-12.4124
":[49,56	-12.4131
,23,24,25,26,27]	-12.4134
TOP	-12.4134
":[78,83	-12.4138
OPTIONS	-12.4144
WORD	-12.4148
sentence	-12.415
":[81,82,83	-12.4151
":[76,78	-12.4152
LINK	-12.4153
SYN	-12.4158
UpdateView	-12.4159
Menu	-12.416
MAIL	-12.4161
":[70,74	-12.4162
CHANGE	-12.4165
PATTERN	-12.4165
balancer	-12.4165
Sequence	-12.4166
UPDATE	-12.4166
COUNT	-12.4171
":[52,53,54,55	-12.4173
13,19	-12.4174
Short	-12.4177
third	-12.4178
Facebook	-12.4178
Scheduler	-12.418
sympy	-12.418
wise	-12.4183
":[1,6,8	-12.4184
":[66,69,70	-12.4187
▁EXPRESS	-12.4188
▁characters	-12.4189
ithorian	-12.4191
cpp	-12.4192
":[1,3,5,7,16	-12.4199
":[15,18,19	-12.42
outer	-12.4224
endor	-12.4225
345	-12.4234
pvp	-12.4234
,38,40,42	-12.4235
,12,15,18,21,24	-12.4261
":[56,62	-12.4292
downloader	-12.4297
'])	-12.4305
Focus	-12.4313
":[22,29	-12.4314
audio	-12.4318
topology	-12.4319
Space	-12.432
wechat	-12.4326
DateField	-12.4327
Thrift	-12.4328
OpenSSL	-12.4331
postgres	-12.4332
increment	-12.4333
grade	-12.4334
":[32,39	-12.4334
REGEX	-12.4335
until	-12.4338
([^	-12.4341
Vertical	-12.4344
Microsoft	-12.4347
00000000	-12.4348
▁OTHERWISE	-12.4349
▁well	-12.4349
written	-12.4349
▁restriction	-12.4349
▁terms	-12.435
":[39,46	-12.4353
slide	-12.4355
mass	-12.4361
Dump	-12.4363
":[15,24	-12.4363
quit	-12.4383
hack	-12.4394
Hea	-12.4396
################	-12.4407
,28,31,34,37,40	-12.4411
":"0.1.0	-12.4427
":"0.7	-12.4427
optional	-12.443
snap	-12.4432
":[72,73	-12.4441
":[22,23,24,25	-12.4448
":[8,10,8	-12.445
":[69,70,71]	-12.4453
":[8,12,5	-12.4453
REPO	-12.4455
,44,49	-12.4457
enumerate	-12.4459
▁sell	-12.4459
":[80,85	-12.4461
ManyToManyField	-12.4462
":[79,83	-12.4469
":[50,56	-12.4473
":[81,86	-12.4476
facade	-12.4477
":[78,80	-12.4477
CLASS	-12.4481
,52,55	-12.4484
bru	-12.4485
babel	-12.4489
~~~~~~~~~~	-12.4492
Descriptor	-12.4493
Spider	-12.4494
constructor	-12.4496
analytics	-12.4497
decorated	-12.4499
Limit	-12.45
tensor	-12.45
Sensor	-12.4501
Recipe	-12.4501
Prefix	-12.4502
grovepi	-12.4507
azelcast	-12.4507
Normal	-12.4507
":[9,12,15]	-12.4511
Customer	-12.4513
▁LIABLE	-12.4513
disabled	-12.4514
▁registered	-12.4514
soap	-12.4514
4.1	-12.4515
":[8,10,2	-12.4515
rect	-12.452
,10,13,16,19,22	-12.452
xwing	-12.4521
▁Sentry	-12.4521
,52,54,56	-12.4523
":"1.3.6.1.	-12.4525
":[65,68,69	-12.4525
":[71,75	-12.453
deco	-12.4534
Lite	-12.4537
-----\	-12.4542
":[4,6,9	-12.4551
How	-12.4553
Long	-12.4568
":[14,23	-12.4575
":[66,67	-12.4576
2014,	-12.4588
3,6	-12.4598
Game	-12.4601
":[61	-12.4602
ump	-12.4605
without	-12.4609
Tabular	-12.461
:[26,27,28,29,30	-12.4616
VARCHAR	-12.4625
campaign	-12.4625
Used	-12.4627
":[77,79	-12.4633
SCRIPT	-12.4636
":[6,8,8	-12.4639
homepage	-12.464
Mapping	-12.4646
Blob	-12.4649
POINT	-12.465
temporary	-12.4652
MULTI	-12.4652
psycopg	-12.4654
Camera	-12.4657
ATCH	-12.4657
Signature	-12.4657
Manage	-12.4658
clone	-12.466
Rate	-12.4661
distance	-12.4661
":[51,52,53,54	-12.4663
gtk	-12.4664
":[84,85,86	-12.4665
loss	-12.4665
":[1,3,5,8,11,14	-12.4667
[0-9]	-12.4668
jenti	-12.4671
logged	-12.4673
tracking	-12.4674
bulk	-12.4674
Information	-12.4674
ease	-12.4675
":[98,101	-12.4675
Trait	-12.4677
tech	-12.4679
▁occur	-12.468
▁means	-12.468
shirt	-12.4684
,11,14,17,20,23	-12.4685
SAND	-12.469
oct	-12.47
,27,34	-12.4701
door	-12.4706
aaa	-12.4709
operation	-12.471
discovery	-12.4751
dat	-12.4785
":[49,55	-12.4793
":[2,6,1	-12.48
Csrf	-12.4801
PROXY	-12.4806
Mapper	-12.4812
business	-12.482
vault	-12.482
stub	-12.4821
Sign	-12.4822
canonical	-12.4826
":[7,11,6	-12.4827
ADMINS	-12.4827
Experiment	-12.4827
ango	-12.4827
LOCK	-12.4832
double	-12.4833
Reporter	-12.4833
Story	-12.4837
Accept	-12.4838
Transfer	-12.4838
Boto	-12.484
publisher	-12.4842
hole	-12.4842
Standard	-12.4845
":[8,12,6	-12.4846
HMAC	-12.4849
▁otherwise	-12.4849
spice	-12.4849
Android	-12.4851
Installation	-12.4853
":[105,106	-12.4853
":[6,14	-12.4854
contextmanager	-12.4859
":[35,39,4	-12.4861
▁were	-12.4862
Represent	-12.4867
":[2,4,3	-12.4872
":[26,30,3	-12.4873
)(\\	-12.4885
,31,32,33,34,35]	-12.4945
,25,3	-12.4946
":[59,65	-12.4949
Buffer	-12.4954
,33,36,39	-12.4955
▁Ra	-12.4956
":[9,13,4	-12.4962
fixed	-12.4968
":[44,51	-12.4972
Alert	-12.4972
":[81,85	-12.4975
0,11,12,13,14,15	-12.4978
Cipher	-12.4979
Balance	-12.4984
Folder	-12.4985
Iterator	-12.499
MANAGER	-12.4992
declarative	-12.4995
shift	-12.4998
,12,13,14,15]	-12.4998
":[36,43	-12.4999
modern	-12.5002
,31,38	-12.5003
Extractor	-12.5003
jsonify	-12.5004
declare	-12.5007
Close	-12.5008
UERY	-12.5012
DOC	-12.5013
RDF	-12.5015
Switch	-12.5015
":[33,34,35	-12.5016
operating	-12.5019
":[14,16,18]	-12.502
ABCMeta	-12.502
▁introduce	-12.5022
▁University	-12.5022
mandal	-12.5022
DEAL	-12.5023
>`_\	-12.5023
":[107]	-12.5023
trainer	-12.5028
,9,10,11]	-12.5029
repair	-12.5035
,18,23	-12.5037
lux	-12.5039
":[17,26	-12.5041
":[51,52	-12.5044
":[35,42	-12.5053
para	-12.5063
badge	-12.5075
subnet	-12.5076
:::::::	-12.5099
quota	-12.5109
running	-12.5122
Dynamic	-12.513
adapt	-12.5139
":[8,9,10,11	-12.514
":[20,28	-12.515
":[57,63	-12.5152
CommonMiddleware	-12.5159
gallery	-12.5159
errno	-12.5162
phase	-12.5164
Migrat	-12.5169
recipe	-12.5172
Echo	-12.5172
PASS	-12.5174
Operator	-12.5176
replacement	-12.5176
shutit	-12.5177
Launch	-12.518
kitsune	-12.518
catch	-12.5186
visible	-12.5186
UIRED	-12.5187
YEAR	-12.5189
fcgi	-12.5189
Since	-12.519
Family	-12.519
Bucket	-12.5191
▁even	-12.5192
Single	-12.5196
▁handling	-12.5197
▁sense	-12.5198
GIT	-12.5198
pymysql	-12.5199
necklace	-12.52
":[71,74,75	-12.5207
▁representation	-12.5209
What	-12.5211
Sort	-12.5216
training	-12.5219
Math	-12.5219
":[58,64	-12.523
viz	-12.5231
BAR	-12.5245
you	-12.5257
ftp	-12.5258
":[23,31	-12.5273
-----------	-12.5273
medic	-12.5276
,42,45,48	-12.5282
":[62,68	-12.5285
,27,33	-12.5302
▁1)	-12.5309
":[51,57	-12.5312
":[60,66	-12.5318
hexdigest	-12.5319
0,41,42,43,44,45	-12.5322
":[12,17,2	-12.5322
addresses	-12.5324
speak	-12.533
notebook	-12.533
Manifest	-12.5332
Obj	-12.5334
Observer	-12.5334
MetaData	-12.5335
Gradient	-12.5335
approve	-12.5336
Press	-12.5337
Pillow	-12.5342
fuzz	-12.5346
Canvas	-12.5346
bottle	-12.5349
BUILD	-12.5351
Archive	-12.5359
INTEGER	-12.5361
PUBLIC	-12.5363
rgb	-12.5364
":[1,3,5,16	-12.5365
noun	-12.5367
sandbox	-12.5371
":[11,13,14	-12.5371
INFR	-12.5372
uccessfully	-12.5373
Green	-12.5373
▁deployments	-12.5376
saber	-12.5381
":[73,76,77	-12.5383
pylearn	-12.5385
dateutil	-12.539
▁working	-12.5391
,16,17]	-12.5403
quot	-12.5417
ham	-12.5423
(%	-12.5438
excel	-12.5443
":[10,14,4	-12.5448
":[10,11,12	-12.5456
":[46,53	-12.5476
Linux	-12.5481
":[73,77	-12.5496
":[47,48,49,50	-12.5499
suppress	-12.5499
MenuBar	-12.5507
,23,31	-12.5515
,13,16,19	-12.5515
Scope	-12.5521
,109]	-12.5522
parametrize	-12.5522
":[6,8,10	-12.5524
Null	-12.5528
ViewMiddleware	-12.553
":[40,47	-12.5532
Bound	-12.5533
elasticsearch	-12.5533
socialaccount	-12.5533
Optional	-12.5534
mezzanine	-12.5535
,16,18	-12.5535
CLOUD	-12.5535
selenium	-12.5536
METHOD	-12.5538
Docker	-12.554
Wait	-12.5541
Power	-12.5542
Copy	-12.5544
swift	-12.5544
0-9]	-12.5546
negative	-12.5546
":[55,61	-12.5546
Complete	-12.5548
GDAL	-12.555
":[101,104	-12.555
audit	-12.555
Azure	-12.5551
average	-12.5553
DfpClient	-12.5554
Fixed	-12.5556
Thomas	-12.5557
▁granted	-12.5557
":[14,18,4	-12.5558
joy	-12.5559
nym	-12.5583
,9,10,11,12,13]	-12.559
":[7,14	-12.5606
":"10000	-12.5611
,55,61	-12.5615
":[61,62,63,64	-12.5622
":[46,47,48,49]	-12.5624
":[61,62	-12.5632
,19,21,23	-12.5637
":[1,4,7,9	-12.5641
[^	-12.5641
develop	-12.5651
":[28,29,30	-12.5653
multiple	-12.5667
":[57,58	-12.5669
vpn	-12.5673
COOKIE	-12.5683
":[43,44,45,46]	-12.5687
Setting	-12.5689
":[35,36,37,38]	-12.5692
":[64,65,66,67	-12.5694
":[59,66	-12.5695
Positive	-12.5695
,17,18,19,20,21	-12.5703
BIT	-12.5703
IMAGE	-12.5704
formula	-12.5705
LOGIN	-12.5705
":[43,50	-12.5706
migrator	-12.5711
":[16,20,4	-12.5713
SUCCESS	-12.5718
FIRST	-12.5722
Matrix	-12.5725
Area	-12.5726
Wiki	-12.5732
submission	-12.5732
Workbook	-12.5732
Activity	-12.5733
Regression	-12.5734
":[79,82,83	-12.5736
":[10,12,14]	-12.5737
separator	-12.5738
":[1,3,5,18	-12.5738
":[100,103	-12.5739
":[70,73,74	-12.5739
mouse	-12.574
deserialize	-12.5741
partyparrot	-12.5741
mechanism	-12.5742
▁particular	-12.5743
▁produce	-12.5743
▁simply	-12.5743
jacket	-12.5745
":[68,71,72	-12.5746
:[12,13,14,15,16	-12.5749
▁~~~~~	-12.575
,33,42	-12.5756
,13,18	-12.5779
":[22,26,3	-12.5788
Preference	-12.5792
,16,17,18,19,20]	-12.58
LOADER	-12.583
customized	-12.583
,28,30]	-12.5861
":[9,10	-12.5862
":[5,6,8,10,12,1	-12.5863
":[53,59	-12.5878
fabtools	-12.5878
cassette	-12.588
billing	-12.5889
":[84,89	-12.5889
":[68,69	-12.5891
Batch	-12.5892
Resolver	-12.5895
Deployment	-12.5897
tosca	-12.5897
,14,16,18,20,22	-12.59
6379	-12.5901
":[18,19,20	-12.5905
descriptor	-12.5905
Social	-12.5905
LOGGER	-12.5907
embedded	-12.5909
Watch	-12.5909
High	-12.5911
flake	-12.5913
GitHub	-12.5914
Regex	-12.5914
messaging	-12.5915
merchant	-12.5916
macro	-12.5918
":[42,49	-12.5918
Decoder	-12.5927
markup	-12.5927
synchronous	-12.5927
hide	-12.5927
ResolverHelper	-12.5931
▁parsing	-12.5931
exabgp	-12.5931
jedi	-12.5931
wizard	-12.5931
scheduling	-12.5932
webdriver	-12.5933
oai	-12.5934
,19,20]	-12.5937
":[7,11,1	-12.5941
":[60,61	-12.5955
":[30,37	-12.5962
":[8,9,10	-12.5983
":[1,3,5,8,10,12	-12.5991
describe	-12.5998
hug	-12.6013
,24,26,28	-12.6013
Cart	-12.6029
grep	-12.6039
what	-12.606
":[51,58	-12.6064
":[55,62	-12.6067
,28,29,30,31,32]	-12.6068
":[8,13,2	-12.6073
pecan	-12.6075
,39,42,45	-12.6077
bbb	-12.6085
STCode	-12.6088
discount	-12.6091
captcha	-12.6093
inventory	-12.6099
ctl	-12.61
,68,69,70,71,72	-12.6104
asctime	-12.6105
Safe	-12.6105
Analysis	-12.6106
openflow	-12.6107
braintree	-12.6107
lexers	-12.6108
Validate	-12.611
toggle	-12.6112
,5,7,9,11,13,15	-12.6113
DEST	-12.6114
,41,50	-12.6114
":[26,29,30,34	-12.6115
satchmo	-12.6116
[0-9	-12.6117
asyncio	-12.612
cost	-12.6121
classifier	-12.6125
mountain	-12.6126
":[47,54	-12.6136
:[1,3,5,7,9,11,1	-12.6142
:[45,46,47,48,49	-12.6177
":[39,41	-12.6181
scala	-12.6196
":[34,41	-12.621
,50,52,54	-12.6214
":[1,3,5,7,10,12	-12.6221
,16,19]	-12.6237
mite	-12.6242
":[10,16,3	-12.6248
Team	-12.6251
copies	-12.6259
":[50,57	-12.626
randint	-12.626
,24,25,26,27,28]	-12.6261
":[61,67	-12.6262
":[80,84	-12.6268
Trace	-12.6268
tGui	-12.6283
Fuzz	-12.6283
meow	-12.6287
editable	-12.6288
":[21,25,3	-12.6289
digital	-12.6291
finalize	-12.6292
leaf	-12.6292
corpus	-12.6293
depth	-12.6295
Scene	-12.6296
cloudcafe	-12.6296
Trigger	-12.6301
Encoder	-12.6306
eyboardInterrupt	-12.6307
ADDRESS	-12.6308
Plain	-12.6311
Func	-12.6313
":[11,15,2	-12.6316
Mouse	-12.6317
THOU	-12.6319
nUsually	-12.632
▁Rackspace	-12.632
▁rendering	-12.632
▁below	-12.6328
,37,42,49	-12.6328
autocomplete	-12.6331
,36,37,38,39,40]	-12.6335
Gateway	-12.6339
,31,34,37,40,43	-12.634
,36,39,	-12.6349
":[1,3,16	-12.6352
needs	-12.6357
,75,76,77,78,79	-12.6412
:[13,14,15,16,17	-12.6415
,27,3	-12.6418
":[18,22,2	-12.6425
":[30,34,4	-12.6433
near	-12.6434
,31,4	-12.6434
":[1,4,6,8,10,12	-12.644
":[18,27	-12.6464
":[83,88	-12.6477
":[41,48	-12.648
sahara	-12.6483
directories	-12.6484
>[0-9]	-12.6487
":[87,92	-12.6488
":[82,84	-12.6491
bytearray	-12.6492
OUTPUT	-12.6492
closure	-12.6493
nick	-12.6494
,31,32,33,34]	-12.6496
tutorial	-12.6496
shutdown	-12.6497
geometry	-12.6497
RunPython	-12.6498
Position	-12.6498
,73,74,75,76	-12.6501
Partition	-12.6501
variant	-12.6501
":[90,91,92	-12.6503
jump	-12.6503
community	-12.651
":[5,9,1	-12.6511
Comparison	-12.6512
":[98,10	-12.6512
Success	-12.6513
choose	-12.6515
ELLIPSIS	-12.6517
▁appropriate	-12.6519
furni	-12.652
Michael	-12.652
▁substantial	-12.652
▁those	-12.652
▁When	-12.652
▁very	-12.652
▁made	-12.652
ratio	-12.6522
▁Sets	-12.6522
bear	-12.6525
>=1.0	-12.6526
(1)	-12.6529
":[69,72,73	-12.653
":[108]	-12.6532
feedback	-12.6534
formatted	-12.6539
COR	-12.6558
":[1,3,18	-12.6579
SHARE	-12.6593
":[60,61,62,63	-12.6626
":[67,68,69,70	-12.6626
,33,35,37,39,41	-12.6627
UTF	-12.6635
":[22,23,24	-12.664
Language	-12.6642
:[10,11,12,13,14	-12.6643
":[6,11,1	-12.6644
":[52,58	-12.6675
":[62,63,64,65	-12.668
\\.(	-12.6689
":[48,55	-12.6689
trust	-12.6694
Easy	-12.6694
LABEL	-12.6695
RegionInfo	-12.6699
Benchmark	-12.67
Patch	-12.6703
OOL	-12.6704
UEUE	-12.6704
Communication	-12.671
attack	-12.6711
filing	-12.6712
Encrypt	-12.6712
ReleaseNotes	-12.6713
":[6,7,8,9,10]	-12.6715
Verilog	-12.6715
Dashboard	-12.6716
margin	-12.6716
INDICATOR	-12.6717
svg	-12.6718
":"1.5	-12.6719
AFTER	-12.672
Deferred	-12.6721
▁docstring	-12.6722
tarball	-12.6723
▁Unix	-12.6724
TODO	-12.6724
thefuck	-12.6724
▁fails	-12.6725
Reactor	-12.6726
":[38,46	-12.6746
,44,53	-12.6751
":[85,86,87	-12.677
,20,21,22,23,24]	-12.6774
Each	-12.6781
corr	-12.6786
":[6,7	-12.6789
":[9,12,13	-12.6793
hTool	-12.6795
,53,54,55,56,57	-12.6841
,63,64,65,66,67	-12.6847
adwords	-12.6851
invite	-12.6868
BINARY	-12.6869
iteration	-12.6871
compatibility	-12.6872
Documentation	-12.6874
SECURE	-12.6879
":[2,5,1	-12.6885
nginx	-12.6887
OneToOne	-12.6887
curses	-12.6891
":[8,14,2	-12.6893
Registration	-12.6897
Cassandra	-12.6898
Soft	-12.6898
":[88,93	-12.6901
LOGGING	-12.6901
hierarchy	-12.6901
Insert	-12.6902
GEO	-12.6906
morph	-12.6909
evil	-12.6909
STORAGE	-12.6909
Slide	-12.6911
tastypie	-12.6911
REMOTE	-12.6912
Embed	-12.6913
########	-12.6914
Dictionary	-12.6915
":[5,11	-12.6915
Cert	-12.6916
ozdns	-12.6916
ACTIVE	-12.6916
yield	-12.6917
":[59,60	-12.692
OpenID	-12.692
Kernel	-12.6922
succeed	-12.6922
Consumer	-12.6922
DataFrame	-12.6923
damage	-12.6926
":[10,19	-12.6927
▁Raspberry	-12.6932
banner	-12.6932
▁purpose	-12.6932
":[9,10,11,17	-12.6933
▁cause	-12.6933
":[74,77,78	-12.6935
constant	-12.6935
Full	-12.6937
Hard	-12.6945
":[22,30	-12.6945
":[6,10,7	-12.6946
bitbucket	-12.6948
":[28,35	-12.695
":[9,11,2	-12.6953
construct	-12.6963
":[12,16,5	-12.697
:[31,32,33,34,35	-12.697
":[1,3,8,10	-12.6984
":[58,59,60,61	-12.6996
Scala	-12.6999
evin	-12.7012
":[40,41,42	-12.7033
":[1,3,6,11	-12.7048
:[15,18,19,20,21	-12.7048
align	-12.7073
addition	-12.7076
INSTANCE	-12.7079
,37,44,51	-12.7086
":[8,12,7	-12.7086
,58,60,62	-12.7088
essionMiddleware	-12.7092
radius	-12.7105
Subscribe	-12.7105
Super	-12.7109
":[85,89	-12.711
SEARCH	-12.7111
activation	-12.7112
Strategy	-12.7114
sidebar	-12.7116
":[45,52	-12.7117
LEVEL	-12.7119
":[44,45,46	-12.7121
Ticket	-12.7122
,63,69	-12.7127
":[33,41	-12.7127
Extended	-12.7129
frequency	-12.7131
THIS	-12.7132
Condition	-12.7133
envisage	-12.7136
preferences	-12.7137
":[1,3,6,10	-12.7138
":[28,32,3	-12.714
twilio	-12.7141
capabilities	-12.7141
ECDSA	-12.7145
▁yet	-12.7145
Could	-12.7145
aqualish	-12.7145
izing	-12.7146
":[11,13,16]	-12.7146
bird	-12.7147
bothan	-12.7149
>=0.1	-12.7155
":[27,35	-12.7158
:[31,34,36,38,40	-12.7161
":[89,90,91	-12.7181
":[9,19	-12.7202
,38,39,40,41,42]	-12.7215
▁indicat	-12.7216
":[33,40	-12.7229
,18,19]	-12.7233
,19,22,25	-12.7256
,42,	-12.7269
passwd	-12.7303
,17,18]	-12.7308
foreign	-12.7314
glue	-12.7316
ReadOnly	-12.7317
hints	-12.7321
Aggregate	-12.7325
LENGTH	-12.7326
Structure	-12.7327
":[83,85	-12.7327
rapidsms	-12.7327
Encoding	-12.7331
":[82,87	-12.7332
CASE	-12.7334
mnist	-12.7335
Price	-12.734
Literal	-12.7341
coordinator	-12.7344
":[12,16,4	-12.7346
texture	-12.7346
Fetch	-12.7348
CSV	-12.7349
Alias	-12.7351
WEEK	-12.7353
monkeypatch	-12.7354
":[26,34	-12.7356
First	-12.7356
":[81,84,85	-12.7361
clause	-12.7361
lugValueWidget	-12.7363
music	-12.7363
Symbol	-12.7366
pirate	-12.7368
,110]	-12.7379
":[36,41,42	-12.7391
":[14,25	-12.7392
,9,11,13,15	-12.7397
":[55,56,57,58	-12.7401
24,28	-12.7404
":[17,27	-12.7425
,66,68	-12.7426
,15,16,17,18,19]	-12.7431
,33,34,35,36,37]	-12.7434
▁iterat	-12.7434
department	-12.7471
":[4,5,6,7,8,9,1	-12.748
":[77,80,81	-12.7484
:[58,59,60,61,62	-12.7492
uke	-12.7493
,15,18,21,24,27	-12.7503
":[45,49,5	-12.751
Related	-12.7531
PROCESS	-12.7534
":[53,60	-12.7541
liyun	-12.7541
legacy	-12.7546
":[54,55,56,57]	-12.7548
Organization	-12.7549
SYSTEM	-12.7552
circle	-12.7553
DataSource	-12.7554
Creation	-12.7554
cuda	-12.7554
relay	-12.7558
Thing	-12.7561
CURRENT	-12.7561
Scale	-12.7562
,31,33,35]	-12.7563
datapad	-12.7567
Shared	-12.7567
Compressor	-12.7569
placeholder	-12.7571
Summary	-12.7572
coding	-12.7575
Spatial	-12.7576
Desktop	-12.758
bottom	-12.7581
Robot	-12.7581
":[4,12	-12.7582
though	-12.7583
▁still	-12.7585
Sellmo	-12.7585
nVerif	-12.7585
turret	-12.7586
construction	-12.7587
pistol	-12.7587
wound	-12.7587
,26,29,32,35,38	-12.7589
,22,24,26,28,30	-12.759
greenlet	-12.759
,22,26	-12.7593
":[4,7,10]	-12.7596
":[69,70	-12.7599
":[9,10,12,14	-12.7607
:[52,53,54,55,56	-12.7635
":[25,29,3	-12.7644
":[34,35,36	-12.7645
:[55,56,57,58,59	-12.7699
MOD	-12.7703
":[1,3,9,15	-12.7707
,53,55,57	-12.7713
MAGIC	-12.7738
":[56,63	-12.7751
":[82,86	-12.7762
unsubscribe	-12.7762
":[50,51,52,53]	-12.7764
":[34,38,4	-12.7765
Weight	-12.7767
FLAG	-12.7767
splitlines	-12.7767
Photo	-12.7768
kraken	-12.7771
phrase	-12.7772
:[50,51,52,53,54	-12.7778
":[52,59	-12.7781
":[86,88	-12.7782
haystack	-12.7783
gather	-12.7783
machina	-12.7787
pycopia	-12.7788
Analyzer	-12.7789
":[1,3,5,7,10,13	-12.7792
":[80,82]	-12.7793
mongoengine	-12.7794
guest	-12.7794
fluent	-12.7795
":"0005_	-12.7796
spirit	-12.7798
fqdn	-12.7801
Nova	-12.7801
minimum	-12.7801
slash	-12.7803
debian	-12.7804
":[7,8,9,10]	-12.7804
singleton	-12.7804
":[78,81,82	-12.7805
Execute	-12.7805
impact	-12.7805
Deprecated	-12.7806
":[14,24	-12.7807
Segment	-12.7807
":"1.0.0	-12.7807
paragraph	-12.7808
scoring	-12.7809
WORLD	-12.7809
precision	-12.781
▁Limited	-12.7812
perspective	-12.7812
dantooine	-12.7813
▁due	-12.7813
water	-12.7814
":[5,7,9]	-12.7814
sound	-12.7815
casual	-12.7816
bandit	-12.7818
trap	-12.7826
":[53,54,55,56	-12.7829
syndication	-12.7833
lite	-12.7846
":[1,3,6,14	-12.7851
,26,27,28,29,30]	-12.7905
":[5,8,1	-12.791
Asset	-12.7912
":[26,27,29,31	-12.7916
":[82,83,84	-12.792
:[54,55,56,57,58	-12.7927
":[1,3,7,9,11	-12.793
":"0.8	-12.7938
":[29,37	-12.794
voucher	-12.7965
":[58,59	-12.7967
,60,61,62,63,64	-12.7971
,22,24,26	-12.7976
basket	-12.7981
TestSuiteRunner	-12.7989
:[33,34,35,36,37	-12.7989
":[65,71	-12.7993
":[8,12,8	-12.7998
":[85,90	-12.7998
":[44,45,46,47]	-12.8002
epochs	-12.8002
SOCK	-12.8005
HTMLParser	-12.8008
":[1,5,7,9,11	-12.801
amazon	-12.8011
RATE	-12.8014
":[6,11,2	-12.8015
RESULT	-12.8017
ComboBox	-12.8017
canvas	-12.802
Annotation	-12.8024
thumb	-12.8028
inclusion	-12.8028
DESC	-12.8028
instrument	-12.8028
":[66,67,68,69	-12.803
ORDER	-12.8031
":[32,36,4	-12.8031
":[1,10	-12.8031
Authenticate	-12.8032
Submit	-12.8032
standalone	-12.8033
Shopify	-12.8033
great	-12.8034
,112]	-12.8035
Amazon	-12.8035
sphere	-12.8039
,54,57,60	-12.804
PRESS	-12.8042
Utility	-12.8046
UTC	-12.8049
deferred	-12.805
":[24,32	-12.8058
":[34,40,41	-12.8077
":[2,6,2	-12.8099
":"0.1.1	-12.81
,36,37,38,39,4	-12.8106
":[36,40,4	-12.8116
":[16,24	-12.8117
":[10,14,5	-12.8128
IECo	-12.8144
":[56,57,58,59	-12.8155
":[8,11,1	-12.8158
":[16,25	-12.8165
":[37,38,39	-12.8184
,21,23,25,27,29	-12.8187
implementation	-12.819
implements	-12.8197
FROM	-12.8211
:[28,29,30,31,32	-12.8215
":[57,64	-12.8238
Guide	-12.8244
evoked	-12.8244
sigma	-12.8246
sqrt	-12.8248
HOME	-12.8252
promotion	-12.8252
inference	-12.8253
movie	-12.8253
":[86,87,88	-12.8254
angular	-12.8255
countries	-12.8256
SPAR	-12.8258
(.*)	-12.8262
Retrieve	-12.8263
CUSTOM	-12.8264
Body	-12.8264
PDF	-12.8265
,34,36,38,40,42	-12.8265
Scanner	-12.8268
Secret	-12.8269
repositories	-12.8271
Internal	-12.8271
Statistic	-12.8272
AssertionError	-12.8273
":[2,3,4,5,6]	-12.8274
Include	-12.8275
Running	-12.8275
Lookup	-12.8278
DROP	-12.8279
scroll	-12.8279
MARK	-12.8281
sensitive	-12.8281
Sphinx	-12.8282
▁happen	-12.8282
▁Scientific	-12.8283
":[19,29	-12.8283
solum	-12.8283
Engineering	-12.8283
▁executed	-12.8283
PathSpec	-12.8284
rpyc	-12.8284
bracer	-12.8285
dungeon	-12.8285
":[9,13,5	-12.8296
":[63,64,65,66	-12.831
,18,20]	-12.8326
,25,26,27,28,29]	-12.8333
PLUS	-12.8342
":[32,40	-12.8382
":[42,46,5	-12.8431
":[67,73	-12.8432
:[56,57,58,59,60	-12.8436
":[6,10,6	-12.8454
,41,44,47	-12.8458
zookeeper	-12.8468
":[10,13,14	-12.8477
":[64,70	-12.8479
":[41,49	-12.8479
deepcopy	-12.8489
":[43,47,5	-12.8492
SONEncoder	-12.8492
birth	-12.8493
picture	-12.8497
STREAM	-12.8498
paypal	-12.8499
FLOAT	-12.8499
Horizontal	-12.85
ralph	-12.8501
":"0004_	-12.8504
snake	-12.8508
Encode	-12.8508
Tornado	-12.8508
White	-12.8509
multiprocessing	-12.8512
Active	-12.8512
noise	-12.8515
Already	-12.8516
floor	-12.8516
":[17,19,20	-12.8519
":[86,89,90	-12.852
weather	-12.8523
guild	-12.8523
front	-12.8523
declaration	-12.8523
factorial	-12.8524
verification	-12.8524
CLASSIFIER	-12.8524
":"0.3.0	-12.8524
▁entire	-12.8526
▁specify	-12.8526
Toggle	-12.8527
":[102,105	-12.853
nLIAB	-12.853
permutation	-12.8539
,24,25]	-12.8547
":[8,10,9	-12.8553
,14,17,20,23,26	-12.8563
Badge	-12.8578
":[11,13,2	-12.858
":[9,10,11,14	-12.8584
":[1,4,19	-12.8591
,14,15,16,17,18]	-12.86
,28,29]	-12.8605
,77,78,79,80,81	-12.8635
,29,30,31,32,33]	-12.8645
:[23,24,25,26,27	-12.8655
,50,51,52,53]	-12.8668
":[75,76	-12.8671
":[5,8,9	-12.8673
":[1,13	-12.868
pyqode	-12.8688
,48,49,50,51,52]	-12.8692
,66,67,68,69,70	-12.8704
except	-12.8707
":[71,77	-12.8708
":[1,4,6,11	-12.871
,31,34,37	-12.8715
":[83,87	-12.8723
Attr	-12.8723
":[27,31,3	-12.8724
,22,23,24,25,26]	-12.8728
balance	-12.8729
":[63,69	-12.873
tweet	-12.8736
":[81,83	-12.8738
OAIHa	-12.8741
EXTENSION	-12.8742
qrcode	-12.8746
keystone	-12.8748
cisco	-12.8751
TASK	-12.8753
RETRY	-12.8754
youtube	-12.8754
Before	-12.8757
":[7,10,11	-12.8758
fingerprint	-12.8759
Business	-12.8759
expedient	-12.8762
Like	-12.8763
Postgres	-12.8765
Latest	-12.8765
whoosh	-12.8765
WRITE	-12.8767
wrong	-12.8767
ndarray	-12.8767
Sheet	-12.8768
generation	-12.877
material	-12.8771
LDAP	-12.8771
tidy	-12.8771
recommend	-12.8772
Finger	-12.8772
leonardo	-12.8772
manipulat	-12.8772
Caching	-12.8773
Calculate	-12.8776
▁Science	-12.8776
▁Cryptography	-12.8776
hospital	-12.8777
skeleton	-12.8778
nightsister	-12.8778
battlefield	-12.8778
bicep	-12.8778
missile	-12.878
,43,53	-12.8785
,66,72	-12.8799
":"0.2.0	-12.88
":[8,19	-12.8813
indicator	-12.8815
,10,12,14	-12.8828
,46,47,48]	-12.8831
fusion	-12.8855
jwt	-12.8866
":[23,28,29	-12.8879
,99,10	-12.8897
nboo	-12.8941
":[19,23,2	-12.8952
,57,59,61	-12.8957
given	-12.8958
Describe	-12.898
ALLOWED	-12.8985
SHOW	-12.8991
PRIVATE	-12.8992
Executor	-12.8995
Owner	-12.8996
paginate	-12.8996
":[10,16,2	-12.8996
populate	-12.9
communicate	-12.9
ACCOUNT	-12.9001
polygon	-12.9001
parallel	-12.9002
":[34,42	-12.9008
Singleton	-12.9009
MONGODB	-12.9009
":[20,24,3	-12.9011
Health	-12.9016
":[8,9,10,11,12]	-12.9017
EXIST	-12.9017
abort	-12.9022
FILTER	-12.9023
Verification	-12.9028
HqRun	-12.903
stopped	-12.903
REPOSITORY	-12.903
circuits	-12.9031
▁corresponding	-12.9033
nikto	-12.9034
rifle	-12.9035
Selenium	-12.9036
horn	-12.9041
":[80,83,84	-12.9041
,63,66,69	-12.9046
:[24,25,26,27,28	-12.9058
":[84,87,88	-12.906
,13,15,	-12.9098
:[19,20,21,22,23	-12.9105
":[62,63	-12.9107
,37,39,41,43,45	-12.9126
":[17,21,2	-12.9147
":[1,3,5,19	-12.9148
":[18,28	-12.921
14,19	-12.9218
,8,10,12,14	-12.9218
:[41,42,43,44,45	-12.9224
":[26,27,28	-12.9236
accessors	-12.9256
":[84,86	-12.9265
padding	-12.9266
":[9,13,3	-12.9269
sentinel	-12.927
premise	-12.9271
CERT	-12.9271
tethys	-12.9272
Oracle	-12.9278
announcement	-12.9279
terminate	-12.9281
fragment	-12.9282
kyo	-12.9282
1234567890	-12.9284
enaml	-12.9284
Algorithm	-12.9285
clipboard	-12.9285
Constructor	-12.9285
Future	-12.9287
":[95,96,97	-12.9287
scrapi	-12.9287
uote	-12.9288
,58,59,60,61,62	-12.9289
optimization	-12.929
Wagtail	-12.929
pillar	-12.9292
Harvester	-12.9294
Flavor	-12.9295
Martin	-12.9297
corvette	-12.9298
▁2014-201	-12.9298
RESPONSE	-12.9302
":[18,23,24	-12.9309
":[91,92,93	-12.9315
,111]	-12.932
,48,49,50,51,52	-12.9323
:[53,54,55,56,57	-12.9325
ckStar	-12.9341
,29,32,35,38,41	-12.9354
,10,13,16	-12.9362
:[18,19,20,21,22	-12.9369
:[1,4,7,10,13,16	-12.9376
Trac	-12.9384
,19,20,21,22,23	-12.941
,48,51,54	-12.9425
:[16,17,18,19,20	-12.9431
,53,56,59	-12.9481
,63,65,67	-12.9483
footnote	-12.9492
":[21,22,24	-12.95
,36,37,38]	-12.9509
browse	-12.9509
":[61,68	-12.9514
RUNNER	-12.9515
loadTestsFrom	-12.9523
INTERNAL	-12.9524
REDIRECT	-12.9527
,66,71	-12.9527
NIST	-12.9527
Gallery	-12.9532
crud	-12.9538
":[87,89	-12.9538
Poly	-12.9541
INTERVAL	-12.9543
crowdsourcing	-12.9543
pillow	-12.9545
ironic	-12.9546
Translated	-12.955
Problem	-12.955
comparison	-12.9553
tvtk	-12.9555
crumb	-12.9555
Screen	-12.9556
Contrib	-12.9556
timing	-12.9556
yyy	-12.9557
SUGGEST	-12.956
Second	-12.9562
spatial	-12.9562
gauge	-12.9565
leading	-12.9565
▁Given	-12.9566
▁better	-12.9566
▁somehow	-12.9566
wire	-12.9567
:[39,40,41,42,43	-12.9567
DEBI	-12.958
Community	-12.9593
":[38,39,40,4	-12.9605
58,61	-12.9609
":[87,88,89	-12.9614
,38,39,40,41]	-12.964
":[16,20,3	-12.9713
24,29	-12.9752
[1,3,5,7,9,11,13	-12.9754
boost	-12.9791
,70,71,72,73,74	-12.9793
WeChat	-12.9802
threshold	-12.9803
DICT	-12.9806
pyrax	-12.9806
":[86,91	-12.9809
PUT	-12.9812
Progress	-12.9813
":[6,8,9	-12.9813
wkt	-12.9816
GOOGLE	-12.9818
DEFINE	-12.9823
oracle	-12.9824
Clear	-12.9827
Private	-12.9827
Plug	-12.9828
Subject	-12.9828
Hidden	-12.9829
coordinates	-12.983
workshops	-12.9834
,47,49,51,53	-12.9836
truncate	-12.9836
Tracker	-12.9838
":[2,8	-12.9838
luigi	-12.9839
gunicorn	-12.984
evolution	-12.9841
bounce	-12.9841
recognize	-12.9842
FUNCTION	-12.9842
▁least	-12.9844
interior	-12.9845
RFC	-12.9845
PARSE	-12.9848
PUSH	-12.985
":[82,85,86	-12.985
MUT	-12.985
":[96,97,98	-12.9858
":[76,79,80	-12.9861
,44,46,48,50	-12.987
]*)	-12.9878
":[4,9,1	-12.9882
,67,69,71	-12.99
":[19,22,24	-12.9921
,61,63]	-12.9941
Term	-12.9954
":[2,3,1	-12.9958
":[13,15,18	-12.9967
":[17,21,3	-12.9968
,42,45,48,51,54	-13.0007
artifact	-13.0016
":[9,13,6	-13.0024
":[13,17,3	-13.0039
,61,62,63,64,65	-13.0044
":[1,3,5,7,9,13	-13.0065
":[54,58,6	-13.0073
Paginator	-13.0075
BytesI	-13.0078
frontera	-13.0084
":[45,53	-13.0084
zinnia	-13.0085
conductor	-13.0087
conversation	-13.0087
STORE	-13.0096
neuro	-13.0096
Manufacturer	-13.0106
IGNORE	-13.0107
Pipe	-13.0109
rspecs	-13.0111
":[69,70,71,72]	-13.0112
mirror	-13.0112
desired	-13.0113
Wizard	-13.0114
TAX	-13.0114
Blue	-13.0116
consume	-13.0118
":[9,10,11,12,13	-13.012
,74,75,76,77,78	-13.0122
Analytics	-13.0123
Should	-13.0125
After	-13.0127
,71,73,75	-13.0129
▁equivalent	-13.013
▁certain	-13.013
▁causing	-13.013
▁populated	-13.013
Clause	-13.013
▁correctly	-13.013
Memcache	-13.0131
gloves	-13.0133
,9,10,11,12]	-13.0196
}/{	-13.0237
":[6,7,9	-13.0305
":[8,9,11,1	-13.0312
":[1,3,6,16	-13.0321
through	-13.0341
General	-13.0358
":[59,60,61,62]	-13.0362
MIGRATE	-13.0362
":[46,54	-13.0369
":[72,78	-13.0376
":[69,76	-13.0376
WINDOW	-13.0377
":[70,76	-13.0378
credential	-13.0379
,42,47,52	-13.0379
Smart	-13.0384
":[63,70	-13.0385
xyz	-13.0385
isposable	-13.0387
Clipboard	-13.0389
splash	-13.0393
Polygon	-13.0393
ROUTE	-13.0396
Guard	-13.0398
":[20,29	-13.0398
strategies	-13.0398
bridge	-13.0404
":[84,88	-13.0404
principal	-13.0406
pulsar	-13.0411
PySide	-13.0411
broken	-13.0411
":[6,7,9,11,13	-13.0412
FORTRAN	-13.0413
Atom	-13.0414
INTERFACE	-13.0415
scanner	-13.0415
About	-13.0417
Debian	-13.0418
retention	-13.0418
wide	-13.042
caching	-13.0423
strength	-13.0423
brew	-13.0424
▁Processing	-13.0424
bunker	-13.0427
":[100,10	-13.0428
:[35,36,37,38,39	-13.0453
":[1,3,5,7,9,14	-13.0462
":[46,50,5	-13.0468
,12,13,14]	-13.0482
":[37,41,4	-13.0511
▁separate	-13.0534
,14,17,2	-13.0536
":[1,11	-13.0577
":[31,35,4	-13.0579
,33,34,35,36]	-13.059
▁describ	-13.0597
":[1,4,7,9,11	-13.0645
":[68,69,70,7	-13.0649
Alpha	-13.0658
Cancel	-13.0661
SDL	-13.0665
":[56,64	-13.0667
SMALL	-13.0668
dhcp	-13.0673
":[1,9,11	-13.0675
Firefox	-13.068
,42,44,46,48,50	-13.0685
":[73,79	-13.0686
questionnaire	-13.0686
Secure	-13.0687
Snapshot	-13.069
":[92,97	-13.0691
INCLUDE	-13.0693
SUPPORTED	-13.0694
Final	-13.0694
delimiter	-13.0694
glass	-13.0696
Pagination	-13.0698
disqus	-13.0699
Play	-13.07
jpeg	-13.0703
Embedded	-13.0703
/1.6/	-13.0704
Shape	-13.0707
,42,44,46	-13.0707
simulation	-13.0708
Percent	-13.0713
uota	-13.0716
Chrome	-13.0717
SCHEMA	-13.0719
scaffold	-13.0721
▁initialization	-13.0722
temperature	-13.0723
aous	-13.0723
battery	-13.0725
hedwig	-13.0726
▁explicitly	-13.0727
▁several	-13.0727
durasteel	-13.0727
flocker	-13.0728
▁assume	-13.0728
dathomir	-13.0729
(0)	-13.0732
":[96,10	-13.0735
:[20,21,22,23,24	-13.0755
":[1,3,7,10	-13.0756
,8,12,15,18,21,	-13.0781
":[1,14	-13.0784
,16,21,26,31	-13.079
:[69,70,71,72,73	-13.0805
":[1,3,5,7,9,16	-13.0814
,70,72,74	-13.0863
":[10,14,6	-13.0886
":[37,41,5	-13.0911
,30,31,32]	-13.0922
":[44,48,5	-13.0928
,52,53,54,55,56	-13.0942
":[12,16,6	-13.0969
Campaign	-13.0969
":[22,27,28	-13.098
,34,35,36,37,38	-13.0981
COLOR	-13.0986
literal	-13.0991
officer	-13.0994
":[33,42	-13.0999
atlas	-13.0999
":[62,69	-13.1
PERMISSION	-13.1001
reject	-13.1006
MEM	-13.1008
Identifier	-13.101
":[90,95	-13.101
":[7,11,7	-13.1012
America	-13.1012
,64,67,7	-13.1013
Elastic	-13.1016
Daemon	-13.1017
":[85,87	-13.1017
gizmo	-13.102
annotate	-13.102
ITEM	-13.102
CONSUM	-13.1021
conflict	-13.1024
":[93,94,95	-13.1025
":[19,23,3	-13.1025
wikipedia	-13.1025
yelp	-13.1028
":[10,15,3	-13.103
Cursor	-13.103
CONCAT	-13.1031
Topology	-13.1031
automatic	-13.1032
Formula	-13.1033
XlsxWriter	-13.1034
survey	-13.1035
tower	-13.1036
parentheses	-13.1037
▁easier	-13.1038
":[1,3,6,12	-13.1038
":[107,108	-13.1038
odoboa	-13.1039
▁arbitrary	-13.1039
▁blinkled	-13.1039
▁demonstrate	-13.1039
▁-*-	-13.1039
FPGA	-13.104
Wrap	-13.104
marauder	-13.1041
▁manually	-13.1041
stormtrooper	-13.1041
bandolier	-13.1042
flora	-13.1042
destructible	-13.1043
Here	-13.1043
":[75,78,79	-13.1068
,47,49,51	-13.1086
24,27,30,34,37,4	-13.1097
,31,32,33]	-13.1111
":[6,9,2	-13.1124
":[11,24	-13.1133
:[11,12,13,14,15	-13.114
,18,20,22,24,26	-13.1174
,39,40,41,42,43]	-13.1192
:[70,71,72,73,74	-13.1195
":[7,9,10	-13.1241
":[18,22,3	-13.1262
":[6,8,12]	-13.1271
":[1,3,9,11	-13.1273
implicit	-13.1291
,29,32,35	-13.1293
moderation	-13.1297
":[1,5,9	-13.1302
mkdtemp	-13.1308
,46,48,5	-13.1317
Reverse	-13.1332
Optimizer	-13.1333
receipt	-13.1337
PRODUCT	-13.1338
,17,22,27,32,37	-13.1338
Bolt	-13.1338
linalg	-13.1339
immediate	-13.1341
triple	-13.1344
Audio	-13.1345
kafka	-13.1345
Delivery	-13.1346
histogram	-13.1347
ACCEPT	-13.1347
Currency	-13.1347
▁inherit	-13.1348
capacity	-13.1348
expiration	-13.1349
TITLE	-13.1351
COMPONENT	-13.1352
Abort	-13.1352
adjust	-13.1353
half	-13.1354
Duplicate	-13.1354
toctree	-13.1355
student	-13.1356
watson	-13.136
Ensure	-13.1361
▁Additional	-13.1362
▁actually	-13.1362
/1.8/	-13.1362
NewFileObject	-13.1362
":[108,109	-13.1363
asteroid	-13.1364
":[7,10,11,12	-13.1366
GCM	-13.1367
,62,64,66	-13.1367
":[1,3,5,8,13	-13.143
,15,17,19,21,23	-13.1461
":[38,42,5	-13.147
":[12,15,2	-13.1479
marshal	-13.1498
:[43,44,45,46,47	-13.1509
":[14,18,5	-13.1565
,60,61,62]	-13.1573
firefox	-13.1591
":[85,88,89	-13.162
2,13,14,15,16,17	-13.1621
creator	-13.1639
":[74,80	-13.164
Friend	-13.1643
Captcha	-13.1647
policies	-13.1649
":[7,9,12	-13.1651
Coding	-13.1652
":[1,4,12	-13.1654
Translator	-13.1654
ARGS	-13.1656
":[87,91	-13.1659
issubclass	-13.1661
semantic	-13.1663
LIBRARY	-13.1663
":[92,96	-13.1665
":"0006_	-13.1666
":[69,75	-13.1666
,46,51,56	-13.1667
Flash	-13.1667
Crawl	-13.1668
Sound	-13.1671
entropy	-13.1673
Stuff	-13.1673
screenshot	-13.1673
21,28	-13.1678
album	-13.1679
CSRF	-13.1679
central	-13.1679
pseudo	-13.1681
employee	-13.1682
Calendar	-13.1684
SyntaxError	-13.1684
":[73,77,8	-13.1685
feincms	-13.1685
":[2,9	-13.1685
alchemy	-13.1686
Confirm	-13.1687
Horizon	-13.1687
Relation	-13.1691
onvenience	-13.1693
honeypot	-13.1695
rancor	-13.1695
▁much	-13.1695
Steve	-13.1695
hunter	-13.1697
energy	-13.1697
grassland	-13.1697
":[88,91,92	-13.1703
▁instantiate	-13.1704
UDP	-13.171
:[21,22,23,24,25	-13.172
":[53,57,6	-13.1734
":[54,61	-13.1853
":[28,32,4	-13.1856
4,16,18,21	-13.192
,76,78,80	-13.1933
":[2,3,4,5,6,7,8	-13.1955
information	-13.1956
,15,18,21,24	-13.1962
{3,5}	-13.1969
":[66,70,7	-13.1974
XPathSelector	-13.1983
prepopulated	-13.1983
Nested	-13.1986
Follow	-13.1986
coffee	-13.199
STYLE	-13.1993
SECURITY	-13.1998
Left	-13.2002
Chunk	-13.2002
Master	-13.2004
legal	-13.2006
CRUD	-13.2008
occurrence	-13.2013
Disable	-13.2015
SUFFIX	-13.2015
purchase	-13.2018
graphics	-13.2019
":[2,7,2	-13.202
nailgun	-13.202
explorer	-13.202
Employee	-13.2022
venue	-13.2023
":[44,53	-13.2024
piece	-13.2024
TemporaryFile	-13.2026
Snippet	-13.2026
rosetta	-13.2028
pressure	-13.2028
Period	-13.2028
invitation	-13.2028
evaluate	-13.2028
,80,81,82,83	-13.2029
MachineScaleSet	-13.203
Capture	-13.2031
Repeatedly	-13.2032
predicate	-13.2033
calvin	-13.2033
AreaVi	-13.2034
hadoop	-13.2034
UIRES	-13.2035
":[87,90,91	-13.2037
▁applied	-13.2038
supply	-13.2039
":[15,19,3	-13.2039
▁1023)	-13.204
▁easily	-13.204
▁usually	-13.204
▁Specifie	-13.204
Werkzeug	-13.2041
stalker	-13.2041
sullustan	-13.2042
organic	-13.2042
passengers	-13.2043
":[50,58	-13.2047
":[19,22,23,24	-13.2048
":[36,46	-13.2059
":[103,10	-13.2064
":[41,45,5	-13.2076
,24,30,36	-13.2152
,51,52,53,54	-13.2185
":[6,10,8	-13.2204
":[17,28	-13.2214
,33,35,37,39,4	-13.2216
":[37,40,41,42	-13.2238
":[59,63,7	-13.2249
,55,57,59	-13.2259
###############	-13.226
":[73,74,75,76	-13.2271
Fluff	-13.2301
:[32,35,37,39,41	-13.2309
":[1,3,5,7,9,18	-13.231
":[46,55	-13.2313
{2,4}	-13.2325
pyalgotrade	-13.2338
Association	-13.2341
Principal	-13.2345
EXCLUDE	-13.235
........	-13.2352
mahotas	-13.2355
TIMESTAMP	-13.2359
BeautifulSoup	-13.236
":[86,90	-13.2361
DIRECTORY	-13.2364
Attach	-13.2364
,9,10,11,12,13,1	-13.2365
Deploy	-13.2366
":[40,44,5	-13.2371
":[99,10	-13.2375
natural	-13.2375
rivilege	-13.2376
association	-13.2376
SCOPE	-13.2377
Executable	-13.2378
,43,48,53	-13.2379
traffic	-13.2379
revolver	-13.238
course	-13.2381
DEVICE	-13.2381
SKIP	-13.2382
variance	-13.2382
GENER	-13.2382
Criterion	-13.2385
UNKNOWN	-13.2386
difference	-13.2392
committee	-13.2392
deprecation	-13.2393
kokki	-13.2393
bubble	-13.2394
":[18,29	-13.2395
alphabet	-13.2395
overridden	-13.2396
spreadsheet	-13.2396
OWA	-13.2397
GrovePi	-13.2397
Ironic	-13.2397
NewFileSystem	-13.2398
calculation	-13.2398
":[9,13,1	-13.2398
":[15,17,2	-13.2405
SOUTH	-13.2428
":[1,9,11,13	-13.2431
":[6,7,10	-13.2435
":[9,11,4	-13.2438
":[1,4,11	-13.244
,61,68	-13.2471
:[29,30,31,32,33	-13.2479
":[29,33,4	-13.2481
,18,21,24,27,3	-13.2525
,36,37,38,39]	-13.2537
":[1,3,19	-13.2544
,64,66,68	-13.2553
,65,66,67,68,69	-13.2562
":[45,49,7	-13.2572
:[38,39,40,41,42	-13.2589
":[7,9,4	-13.2597
":[1,3,5,28	-13.2605
":[1,6,8,10	-13.2608
bility	-13.263
,46,47,48,49]	-13.2632
:[40,41,42,43,44	-13.2633
,74,75,76	-13.2633
":[61,65,7	-13.2638
provides	-13.2677
6749.	-13.2689
":[77,78	-13.2702
":[82,83,84,85	-13.2709
kitchen	-13.2712
Sentence	-13.2719
":[59,60,61,6	-13.272
gradient	-13.2721
wooey	-13.273
SMTP	-13.2731
proxies	-13.2738
Visitor	-13.274
eflector	-13.2741
lymph	-13.2741
Medium	-13.2745
pagination	-13.2746
:[76,77,78,79,80	-13.2748
WAIT	-13.275
Perspective	-13.2752
Couch	-13.2754
