<unk>	0
<s>	0
</s>	0
":"	-2.20024
"	-2.49988
,	-2.57343
type	-2.6117
{	-2.61595
","	-2.68083
value	-3.19747
"}	-3.24673
child	-3.33668
ren	-3.33698
}	-3.45717
Load	-4.05223
Name	-4.11339
]	-4.38775
_	-4.50879
Str	-4.87168
s	-5.2273
.	-5.26509
attr	-5.26684
Attribute	-5.28093
l	-5.35047
alias	-5.40423
Cal	-5.42955
n	-5.43596
▁	-5.44322
,"	-5.4536
\	-5.5135
Store	-5.53364
Assign	-5.60813
Import	-5.66356
body	-5.93427
Expr	-6.04913
keyword	-6.10867
list	-6.19786
decorator	-6.31375
Def	-6.3245
Param	-6.35613
Module	-6.42586
▁[	-6.42734
F	-6.44691
:	-6.52183
a	-6.52187
f	-6.60528
default	-6.64445
rom	-6.6658
":[2]	-6.67711
om	-6.72184
args	-6.7254
Fr	-6.73595
":"__	-6.73785
__"}	-6.74727
rgument	-6.78309
Function	-6.79504
name	-6.86278
sel	-6.89367
":[	-6.92617
t	-6.94462
List	-6.95363
/	-7.02842
6]	-7.06706
▁:	-7.10113
d	-7.11802
Num	-7.13454
▁the	-7.17559
Class	-7.19552
":[4]	-7.21698
-	-7.25197
test	-7.28136
bases	-7.29257
Return	-7.32864
7]	-7.36084
5]	-7.46786
If	-7.48187
get	-7.5204
S	-7.53574
se	-7.56331
Index	-7.5971
y	-7.59964
Subscript	-7.60111
▁to	-7.60489
e	-7.60962
django	-7.63137
lf	-7.67388
":[6]	-7.67703
3]	-7.71664
4]	-7.75716
▁a	-7.77836
ing	-7.78772
Tuple	-7.81656
url	-7.82001
setup	-7.85444
Dict	-7.85618
p	-7.88124
config	-7.89384
version	-7.91997
P	-7.92626
True	-7.92662
2]	-7.93824
▁of	-7.94595
path	-7.95824
▁for	-7.97452
'	-7.97815
C	-7.979
A	-7.98387
1]	-8.00484
or	-8.01933
c	-8.01968
8]	-8.03716
package	-8.04653
9]	-8.05147
run	-8.06187
os	-8.07057
Compare	-8.07117
b	-8.07452
file	-8.08229
":[8]	-8.09842
":"\	-8.11117
":[7]	-8.11699
)	-8.11835
":[5]	-8.13451
Eq	-8.14246
▁in	-8.15114
":[1,3	-8.16835
author	-8.16846
2	-8.17394
None	-8.17754
r	-8.1934
UI	-8.1963
lib	-8.19975
":	-8.21971
":[9]	-8.22735
is	-8.22877
0]	-8.23348
D	-8.24324
request	-8.2493
▁'	-8.27283
description	-8.27629
o	-8.281
":[8,9]	-8.28251
models	-8.2827
Test	-8.30122
re	-8.30703
g	-8.32302
i	-8.32507
app	-8.32586
▁(	-8.32799
":[18]	-8.34801
":[15]	-8.34868
settings	-8.36354
ch	-8.36615
main	-8.36885
":[4,5]	-8.3707
":[10]	-8.37339
data	-8.38321
index	-8.38623
M	-8.39143
core	-8.39253
":[12]	-8.3944
":[14]	-8.39462
▁is	-8.39821
action	-8.4069
0"}	-8.41588
R	-8.42064
db	-8.42716
":[36]	-8.44061
all	-8.44136
er	-8.44638
4	-8.44697
":[23,24	-8.45024
id	-8.45226
5	-8.45249
▁A	-8.45442
":[21,22]	-8.46522
future	-8.46605
":[16]	-8.46808
m	-8.48257
yp	-8.48285
T	-8.48661
http	-8.48721
":[10,11	-8.49248
":[2,3]	-8.4931
▁and	-8.49382
ld	-8.50218
":[17,18]	-8.51795
":[20]	-8.51861
(	-8.52205
":[19,20	-8.52901
▁-	-8.5292
key	-8.53171
Except	-8.5336
BinOp	-8.5338
Error	-8.54423
":[28]	-8.5461
en	-8.55729
":[1,3,5	-8.56725
:"	-8.56892
init	-8.56966
▁Python	-8.57419
":[11]	-8.57441
":[13]	-8.57473
":[26]	-8.57531
":[22,23	-8.58034
2"}	-8.58733
":[12,13]	-8.60142
":[14,15]	-8.6018
":[24]	-8.6024
h	-8.60307
to	-8.60337
":[39,40	-8.60637
ed	-8.61344
▁"}	-8.6149
Field	-8.62937
":[35]	-8.6299
":[31]	-8.62996
":[32]	-8.63033
://	-8.63091
":[30]	-8.63095
":[16,17	-8.63772
k	-8.64126
":[32,33	-8.64208
":[15,16	-8.64726
alse	-8.65079
ic	-8.65116
time	-8.66272
set	-8.67455
>\	-8.67608
":[33,34	-8.68065
Action	-8.68633
com	-8.68755
base	-8.68929
dir	-8.69057
":[11,12]	-8.69296
":[6,7]	-8.69348
":[22]	-8.69469
":[13,14	-8.69685
":[26,27	-8.7071
3	-8.71241
ion	-8.71391
tools	-8.72461
":"1"}	-8.72535
code	-8.7271
▁<	-8.72737
▁\	-8.72864
":[45,4	-8.73296
al	-8.73987
::	-8.74068
":[44,45	-8.74413
3"}	-8.75066
Plugin	-8.75404
":[28,29	-8.75513
register	-8.75574
html	-8.7563
":[38]	-8.75681
":[34]	-8.75738
":[18,19]	-8.75781
":[21]	-8.75918
w	-8.75926
":[25]	-8.75943
":[19]	-8.7597
":[17]	-8.75988
load	-8.76941
Add	-8.78387
Pro	-8.78412
logging	-8.78659
sys	-8.79081
Handler	-8.79103
":[45]	-8.79189
Language	-8.79342
at	-8.8006
ions	-8.81721
user	-8.82493
conf	-8.82602
<	-8.82759
unittest	-8.82786
license	-8.82837
":[27]	-8.82904
open	-8.83079
":[47,48	-8.83294
Case	-8.84819
password	-8.86155
":[40]	-8.86309
":[42]	-8.86379
7	-8.86465
▁with	-8.86666
py	-8.87423
v	-8.88427
":[27,28	-8.88428
class	-8.8916
gra	-8.89513
panel	-8.8971
error	-8.89863
dict	-8.89986
":[38,39	-8.9001
context	-8.90165
":[44]	-8.9036
":[7,8]	-8.90362
▁be	-8.90383
":[36,37	-8.90573
Y	-8.91292
":[55,5	-8.91407
B	-8.92081
mming	-8.92141
":[9	-8.9225
▁r	-8.9276
migrat	-8.93041
object	-8.93174
":[20,21	-8.93225
auth	-8.93581
":[41]	-8.94186
DB	-8.94254
":[43]	-8.94286
":[37]	-8.94357
▁License	-8.94594
":[23]	-8.94698
==	-8.96185
st	-8.9712
":[1	-8.97318
field	-8.97349
Panel	-8.97556
>	-8.97766
read	-8.9813
client	-8.98211
":[48]	-8.98215
":[34,35	-8.98298
supybot	-8.98405
▁you	-8.986
":"*"}	-8.99755
str	-8.99951
Re	-9.01384
x	-9.01387
color	-9.02589
O	-9.03012
":[8	-9.03717
":[25,26	-9.05786
":[50,51	-9.06028
":[41,42	-9.06199
":[57,58	-9.0674
":[50]	-9.07053
contrib	-9.07187
VERSION	-9.07232
BaseAction	-9.07363
▁#	-9.07517
▁or	-9.07691
from	-9.08151
Base	-9.08558
word	-9.08786
Config	-9.09647
":[9,10	-9.10304
es	-9.10318
L	-9.11003
message	-9.11032
":[43,44	-9.11232
handler	-9.11326
host	-9.11501
":[52,53	-9.11909
":[61]	-9.12021
add	-9.12086
post	-9.12088
ifier	-9.1214
io	-9.1228
":[37,38	-9.12865
install	-9.13276
":[29,30	-9.13489
",	-9.13718
▁th	-9.14143
Type	-9.1464
fields	-9.15213
":[51,52	-9.1553
Not	-9.15847
G	-9.1587
Image	-9.1661
email	-9.16685
▁an	-9.16854
common	-9.16859
":[63]	-9.16966
▁module	-9.17016
Command	-9.17072
Pass	-9.17111
":[66]	-9.17147
admin	-9.17175
U	-9.17387
utils	-9.17425
views	-9.17451
options	-9.17546
ident	-9.17729
I	-9.18646
Top	-9.19054
":[1,3,5,7	-9.19252
registr	-9.20063
ll	-9.20456
W	-9.21053
":[69,70	-9.21136
create	-9.21571
join	-9.22142
application	-9.22146
For	-9.22204
":[49]	-9.22223
TestG	-9.22225
":[33]	-9.22256
":[53]	-9.22268
Print	-9.22383
github	-9.22451
find	-9.22453
▁this	-9.22563
":"_	-9.2264
op	-9.2295
log	-9.23092
da	-9.23105
kwarg	-9.23485
":[49,50	-9.23917
1	-9.24115
=	-9.245
session	-9.26569
":[48,49	-9.26673
module	-9.26984
":[42,43	-9.27026
import	-9.27125
info	-9.27285
Op	-9.27362
obj	-9.27838
logger	-9.27876
unicode	-9.27887
":[46]	-9.27935
absolute	-9.27965
":[47]	-9.28019
testing	-9.28056
▁--	-9.28192
meta	-9.28734
ly	-9.29016
File	-9.29197
":[72,73	-9.29538
":[63,64	-9.30709
node	-9.31258
":[40,41	-9.32633
":[30,31	-9.32772
command	-9.32934
plugin	-9.32945
9	-9.33132
template	-9.33169
customer	-9.33301
super	-9.33395
":[58,59	-9.33398
."}	-9.33585
on	-9.33679
":[68]	-9.33707
":[56]	-9.33745
":[62]	-9.33788
":[64]	-9.33805
":[39]	-9.33869
requires	-9.339
sellmo	-9.34018
iteral	-9.34118
":[24,25	-9.34227
▁``	-9.34244
":[56,57	-9.36187
":[44,4	-9.36923
":[64,6	-9.37348
de	-9.37587
":[65,66	-9.37911
fix	-9.38161
u	-9.38503
Assert	-9.38738
model	-9.38855
":"#	-9.38994
igration	-9.39226
":[68,69	-9.3965
handlers	-9.39732
celery	-9.3979
":[52]	-9.39915
":[60]	-9.39934
":[54]	-9.39935
CONFIG	-9.39982
E	-9.40064
requirements	-9.40098
▁Django	-9.40204
▁use	-9.40359
new	-9.40497
▁Au	-9.40625
":[35,36	-9.41249
":[76,7	-9.42287
sa	-9.42476
%	-9.42795
wor	-9.43577
":[25,28	-9.43681
urls	-9.43751
Mod	-9.44575
cl	-9.44587
1"}	-9.44769
configure	-9.44923
6	-9.44946
":[70,7	-9.45136
in	-9.45285
ry	-9.45367
▁=	-9.45472
":[59,60	-9.45751
server	-9.46051
update	-9.4606
doc	-9.46207
▁by	-9.46522
":[57]	-9.46533
site	-9.46698
copyright	-9.46747
connection	-9.46758
▁not	-9.4677
":[29]	-9.4684
profile	-9.46849
▁*	-9.46985
casehandler	-9.47236
modules	-9.47238
":[46,47	-9.47398
▁P	-9.47498
classifi	-9.47837
":[66,6	-9.48089
BinOpM	-9.48641
":[1,3,	-9.49538
18	-9.49668
8	-9.49734
use	-9.50043
ers	-9.51204
le	-9.51363
identi	-9.52193
date	-9.52382
else	-9.52626
fier	-9.52671
":[7	-9.52735
``	-9.53063
result	-9.53119
local	-9.53147
json	-9.53314
array	-9.53366
text	-9.5344
print	-9.53443
DATABASE	-9.53626
expected	-9.5377
token	-9.53795
stix	-9.53835
":[51]	-9.53916
":[75]	-9.53964
":[76]	-9.5409
▁%	-9.54305
":[62,63	-9.54435
csv	-9.54564
ter	-9.55092
long	-9.55278
":"2"}	-9.55664
":[16,19	-9.5652
":[53,54	-9.56704
line	-9.57134
Tr	-9.57169
int	-9.57234
":[1,3,6	-9.57495
python	-9.57713
openm	-9.57823
":[3]	-9.58079
":[22,2	-9.59162
order	-9.59673
pro	-9.6002
repo	-9.60044
":[62,6	-9.60064
api	-9.602
address	-9.60377
N	-9.60617
▁on	-9.60723
service	-9.60824
URL	-9.6102
instance	-9.61071
show	-9.61129
util	-9.61156
Source	-9.61194
":[22,25	-9.61224
ES	-9.61246
query	-9.61348
":[59]	-9.6139
Delete	-9.61432
execute	-9.61461
processor	-9.61482
":[69]	-9.61491
assert	-9.61519
":[55]	-9.6156
View	-9.61597
pool	-9.61681
":[74]	-9.61683
":[31,32	-9.6179
▁BSD	-9.61862
format	-9.61894
":[77]	-9.62004
tter	-9.62182
port	-9.62316
Nipap	-9.62367
":[52,5	-9.62595
▁as	-9.62791
pass	-9.63179
":[10,1	-9.63239
":[60,61	-9.63828
▁object	-9.63907
od	-9.64001
Key	-9.64144
":[9,12	-9.64394
In	-9.64889
":[54,55	-9.6509
tests	-9.66286
":[61,62	-9.66393
20,21]	-9.66503
z	-9.67172
Server	-9.67951
)\	-9.68626
hostname	-9.69041
License	-9.69055
▁wh	-9.69137
out	-9.69402
With	-9.69617
express	-9.69652
level	-9.69707
Logger	-9.69738
":[70]	-9.69764
H	-9.6983
":[71]	-9.69837
source	-9.69858
response	-9.69901
":[78]	-9.69911
":[67]	-9.6999
debug	-9.6999
▁Software	-9.70049
▁input	-9.70143
▁if	-9.70185
>=	-9.70216
results	-9.70361
▁The	-9.70637
pproved	-9.70817
Create	-9.71209
RE	-9.7166
vis	-9.71838
ation	-9.7209
ependencies	-9.72126
,34]	-9.72159
":[40,4	-9.72641
plugins	-9.73359
apps	-9.73454
":[74,75	-9.73744
":[23,2	-9.73801
":[11,1	-9.73907
size	-9.74251
":[82,83	-9.74644
▁/	-9.75009
29,30]	-9.76524
":[20,23	-9.76765
St	-9.77313
ience	-9.77493
":[75,7	-9.77585
":[50,53	-9.77763
8,79]	-9.77844
able	-9.77971
build	-9.78177
ment	-9.78271
The	-9.78329
username	-9.78505
Alias	-9.78589
append	-9.78626
must	-9.78749
":[58]	-9.78767
status	-9.7879
dev	-9.78828
red	-9.78846
start	-9.78856
string	-9.78865
len	-9.78868
ta	-9.78955
Value	-9.78985
":[79]	-9.7902
▁it	-9.79097
LICENSE	-9.79121
":[73]	-9.79137
MIT	-9.79145
Status	-9.79153
System	-9.79164
▁see	-9.79185
25,26]	-9.79367
=\"	-9.79517
":"/	-9.79931
up	-9.80147
":[20,2	-9.80191
manager	-9.80258
▁whi	-9.80389
":[14,17	-9.80602
V	-9.80678
one	-9.80704
org	-9.81662
▁E	-9.81811
any	-9.81875
Ca	-9.82376
end	-9.82506
mp	-9.82926
14	-9.83025
":"%	-9.83026
added	-9.83043
actions	-9.83075
FI	-9.83281
30,31]	-9.83598
":[27,30	-9.83905
":[79,8	-9.84287
8,89]	-9.84504
":[71,72	-9.85027
":[24,2	-9.85398
arg	-9.85609
":[31,34	-9.85893
32	-9.85933
":[11,14	-9.86195
":[5,6	-9.86595
TO	-9.86854
output	-9.87522
option	-9.87753
":[21,2	-9.88144
event	-9.88198
ext	-9.88301
parent	-9.88506
view	-9.88551
wrap	-9.88577
no	-9.88583
CompareNot	-9.88725
Development	-9.88732
Inte	-9.88784
root	-9.88811
PATH	-9.88831
Access	-9.88835
task	-9.88904
</	-9.88927
param	-9.88958
bin	-9.88961
":[65]	-9.88995
fab	-9.89078
HTTP	-9.8909
":[39,4	-9.89116
▁%(	-9.89136
Operat	-9.89148
":[92,9	-9.89151
":[83]	-9.89161
▁can	-9.89205
▁OR	-9.89271
":[85]	-9.89274
":[87]	-9.89353
":[82,8	-9.89478
hook	-9.89616
OSI	-9.90228
null	-9.90296
▁example	-9.90362
oint	-9.90611
▁file	-9.90766
▁request	-9.91035
,39]	-9.91137
":[2	-9.91351
":[80,81	-9.91793
te	-9.92257
24,25]	-9.92483
df	-9.92899
":[38,41	-9.9301
":[8,11	-9.93074
rofileController	-9.93568
filter	-9.93603
,23]	-9.939
pe	-9.94346
12	-9.95368
dependent	-9.95545
▁command	-9.95707
ies	-9.96124
":[9,1	-9.9672
IS	-9.96721
▁create	-9.96755
":[19,2	-9.96864
":[10	-9.97081
":[24,27	-9.973
atter	-9.97425
impl	-9.97445
-1	-9.97537
ent	-9.97573
and	-9.98113
um	-9.98712
min	-9.98923
function	-9.98942
":[18,2	-9.99263
▁bo	-9.99301
`	-9.99392
case	-9.99422
COM	-9.99428
BoolOp	-9.99517
foo	-9.99544
include	-9.99555
parse	-9.99629
":[41,4	-9.99684
ME	-9.99751
observer	-9.99796
uid	-9.99868
err	-9.99904
wrapper	-9.99905
Sub	-9.99905
App	-9.99906
IO	-9.99909
ns	-9.9991
subject	-9.99912
PORT	-9.99946
ase	-9.99959
consumer	-9.99961
GafferUI	-9.99967
fail	-9.99999
stream	-10.0001
project	-10.0001
Dir	-10.0001
aise	-10.0002
environ	-10.0002
DEBUG	-10.0003
GafferScene	-10.0003
operation	-10.0007
":[81]	-10.0007
":[72]	-10.0007
Gaffer	-10.001
mysql	-10.001
flask	-10.001
active	-10.0015
Trigger	-10.0018
▁under	-10.0023
▁begin	-10.0023
▁Developer	-10.0031
Moun	-10.0041
ff	-10.0044
▁end	-10.006
▁access	-10.0062
oop	-10.007
":[1,3,5,7,9,11,	-10.0094
Package	-10.0098
":[58,6	-10.0113
wa	-10.014
dmin	-10.0143
,21]	-10.0168
":[32,35	-10.022
▁import	-10.0242
▁3.	-10.0244
9,10]	-10.0245
internal	-10.0249
31,32]	-10.0254
Filter	-10.0285
▁config	-10.0327
":[13,1	-10.0375
17	-10.0398
":[4	-10.0438
":[12,1	-10.0438
▁f	-10.0445
IR	-10.0483
send	-10.0484
▁s	-10.0488
40	-10.0507
me	-10.0517
as	-10.0527
▁data	-10.0549
an	-10.0567
net	-10.063
LE	-10.065
table	-10.0703
▁S	-10.0736
sh	-10.0763
":[71,74	-10.0768
":[60,6	-10.0807
▁C	-10.0836
":[15,18	-10.0908
ke	-10.0924
▁I	-10.0934
,46]	-10.1011
":[67,68	-10.1027
override	-10.1051
iter	-10.1067
TestC	-10.1098
":[6,8	-10.1129
":[28,31	-10.116
CONF	-10.116
Python	-10.1166
CompareI	-10.117
ask	-10.1176
bar	-10.1177
30	-10.1184
syntax	-10.1193
evel	-10.1194
Copyright	-10.1202
cmd	-10.1204
nde	-10.1208
head	-10.1217
factory	-10.1224
Problem	-10.1224
":[7,9	-10.1225
secure	-10.124
Service	-10.1243
auto	-10.1244
np	-10.125
flush	-10.1251
Data	-10.1252
sphinx	-10.1253
%%	-10.1254
HttpResponse	-10.1255
hdf	-10.1259
split	-10.1263
registration	-10.1265
CompareIs	-10.1265
":[80]	-10.1265
curs	-10.1271
APPLI	-10.1271
":[19,22	-10.1272
▁following	-10.1274
":[1,3,5,	-10.1275
Pandora	-10.1275
▁match	-10.1276
sign	-10.1277
BaseField	-10.1277
LS	-10.1279
▁bug	-10.1282
▁API	-10.1285
next	-10.1306
▁count	-10.131
▁Development	-10.1321
▁output	-10.1322
)/	-10.135
files	-10.1367
TU	-10.1373
algorithm	-10.1376
▁dict	-10.1393
▁class	-10.1402
()	-10.1409
ar	-10.1466
scripts	-10.1467
▁http	-10.1468
only	-10.1481
Una	-10.1503
▁method	-10.151
":[12,15	-10.1519
":[39,42	-10.1535
▁N	-10.1546
,78]	-10.1551
":[29,3	-10.1577
bg	-10.1581
ag	-10.1607
▁list	-10.1643
":[56,59	-10.1658
pages	-10.1659
":[16,17,18	-10.1665
idget	-10.1686
sci	-10.1747
ve	-10.1837
":[84,85	-10.1861
▁\"	-10.1864
,33]	-10.1872
formats	-10.1924
▁3	-10.1933
":[34,37	-10.1934
▁OS	-10.1939
Node	-10.1954
▁M	-10.1955
":[30,3	-10.1973
record	-10.1997
":[32,3	-10.2049
,67]	-10.2051
▁In	-10.207
Tab	-10.2126
lug	-10.2127
Set	-10.2228
am	-10.2273
ad	-10.2292
":[49,52	-10.2335
,38]	-10.2361
":[26,29	-10.2364
":[37,40	-10.2366
▁W	-10.2372
nary	-10.2385
":[15,1	-10.2404
▁d	-10.2412
▁1	-10.2421
K	-10.2432
un	-10.2434
20	-10.246
lgorithm	-10.2468
rev	-10.2487
pack	-10.2557
":[35,38	-10.2564
method	-10.258
med	-10.2592
feed	-10.2601
imp	-10.2605
Model	-10.2605
exist	-10.2608
PAT	-10.2608
built	-10.262
with	-10.262
delete	-10.2623
pkg	-10.2626
frm	-10.2627
23	-10.2628
check	-10.2635
style	-10.2639
src	-10.2639
msvs	-10.2643
caseset	-10.2644
environment	-10.2651
Generator	-10.2655
Aug	-10.2656
TI	-10.2657
Celery	-10.2659
verilog	-10.2659
Slice	-10.2664
device	-10.2665
Evaluation	-10.2671
backend	-10.2673
has	-10.2673
Template	-10.2676
callable	-10.2677
ANG	-10.2677
static	-10.2678
":[28,29,30]	-10.2678
ninja	-10.2678
Group	-10.268
division	-10.268
SON	-10.2681
":[93,9	-10.2681
revision	-10.2683
layer	-10.2685
Manager	-10.2685
geom	-10.2687
yaml	-10.2687
DICT	-10.2688
README	-10.269
txt	-10.2692
Hash	-10.2692
Text	-10.2694
Rule	-10.2695
binding	-10.2695
usa	-10.2695
wsgi	-10.2696
▁wi	-10.2697
bl	-10.2699
title	-10.27
,53]	-10.2701
Input	-10.2702
▁giv	-10.2703
▁available	-10.2703
column	-10.2707
":[10,13	-10.2707
":[82]	-10.271
dist	-10.2713
Object	-10.2715
▁WSGI	-10.2717
UID	-10.2719
▁route	-10.2737
bb	-10.2745
isposable	-10.2748
rest	-10.2753
▁message	-10.2758
make	-10.2761
Comp	-10.2762
ev	-10.2763
":[83,8	-10.2763
nThe	-10.2796
▁model	-10.28
▁sho	-10.2827
cc	-10.2831
▁do	-10.2841
,19]	-10.2858
ut	-10.2909
ive	-10.2916
":[68,71	-10.2926
comp	-10.2932
":[34,3	-10.2948
▁package	-10.296
":[72,7	-10.2972
,76]	-10.3099
EN	-10.3111
count	-10.3128
":[38,4	-10.3175
br	-10.3182
":[14,1	-10.3198
point	-10.3236
----------------	-10.3277
Plug	-10.328
":[47,5	-10.3286
etails	-10.3299
▁For	-10.3299
0	-10.3317
":[8,1	-10.3335
Intern	-10.3335
▁Flo	-10.3345
35,36]	-10.3348
":[25,2	-10.3354
▁Return	-10.3419
,86]	-10.3431
,56]	-10.3434
Con	-10.3503
":[77	-10.3508
grad	-10.351
":[91,9	-10.3561
":[13,16	-10.3563
,44]	-10.3571
,20]	-10.3589
▁AN	-10.3601
":[69,7	-10.3602
0.1"}	-10.361
▁contain	-10.3647
":[46,5	-10.3677
":[7,10	-10.3696
6,37]	-10.3699
16	-10.372
":[85,8	-10.3776
abs	-10.3806
Profile	-10.3835
la	-10.3854
ER	-10.3862
▁mo	-10.3934
,55]	-10.3942
age	-10.397
":[1,	-10.402
Get	-10.4057
":[33,3	-10.4065
ary	-10.407
1.	-10.4087
▁ma	-10.4114
DI	-10.4126
13	-10.4145
ct	-10.4146
ml	-10.425
item	-10.4261
neous	-10.4262
openstack	-10.4262
reference	-10.4266
ield	-10.4269
ob	-10.4269
loader	-10.4274
down	-10.4283
installed	-10.4283
ify	-10.429
link	-10.4292
like	-10.4297
INSTALLED	-10.4297
rst	-10.4297
40,41]	-10.4297
contributors	-10.4306
content	-10.4307
ALL	-10.4308
zip	-10.4309
generate	-10.431
25	-10.4312
ellmo	-10.4313
console	-10.4313
translation	-10.4314
display	-10.4315
EMAIL	-10.4315
access	-10.4316
board	-10.4317
before	-10.4317
dump	-10.4318
resource	-10.4319
cov	-10.4319
AL	-10.432
directory	-10.4321
28	-10.4325
BSD	-10.4328
callback	-10.4331
Customer	-10.4338
Extension	-10.4338
Color	-10.4339
cluster	-10.434
Dummy	-10.4343
gtp	-10.4344
Factory	-10.4346
verbose	-10.4347
ditional	-10.4348
Post	-10.4348
complete	-10.435
range	-10.4351
ok	-10.4353
gen	-10.4353
ValueError	-10.4354
rule	-10.4359
commit	-10.436
":[26,3	-10.436
distutils	-10.436
health	-10.4362
sublime	-10.4363
nearest	-10.4363
fixtures	-10.4364
home	-10.4365
▁Libraries	-10.4366
length	-10.4366
branch	-10.4367
pylons	-10.4367
loadyaml	-10.4367
WIDTH	-10.4368
▁either	-10.4368
▁THE	-10.4369
HD	-10.437
WW	-10.4371
job	-10.4373
PY	-10.4375
▁copy	-10.4375
nRevis	-10.4375
":[18,23	-10.4376
forms	-10.4379
▁now	-10.4382
":[90]	-10.4385
stab	-10.4385
points	-10.4388
▁return	-10.439
▁encrypt	-10.4393
▁definitions	-10.4393
rdf	-10.4395
xi	-10.4397
":[97]	-10.4399
▁used	-10.4402
RST	-10.4411
olumn	-10.4424
▁functions	-10.4432
":[5	-10.4435
mail	-10.4438
▁exist	-10.445
":[31,3	-10.445
more	-10.4457
▁one	-10.448
how	-10.4487
▁Module	-10.4488
":[6	-10.4492
documentation	-10.4526
▁string	-10.4546
full	-10.4559
":[3	-10.4562
2.7	-10.4581
sha	-10.4592
":[35,3	-10.4605
▁4	-10.4611
aliases	-10.4613
":[36,39	-10.4661
scheduler	-10.4688
light	-10.4707
":[89,90	-10.4717
▁function	-10.4731
*	-10.4768
deal	-10.4774
required	-10.4784
form	-10.4792
,68]	-10.4828
del	-10.4915
":[16,1	-10.4926
neo	-10.4957
▁ha	-10.4961
bot	-10.4981
":[18,19,20	-10.499
▁run	-10.4993
":[29,32	-10.5009
il	-10.5015
46,47]	-10.5016
created	-10.5073
it	-10.5122
pb	-10.5122
migrate	-10.5134
,54]	-10.5141
et	-10.5144
ling	-10.5157
mda	-10.5159
cor	-10.5168
▁Th	-10.5199
":[30,33	-10.5211
,45]	-10.5213
RO	-10.5249
":[70,73	-10.5265
":[63,6	-10.5326
,80]	-10.5357
,37]	-10.537
IP	-10.5385
▁field	-10.539
":[84,8	-10.5394
00	-10.5395
CH	-10.5504
":[73,7	-10.5507
ance	-10.5532
▁name	-10.5533
8,43]	-10.5535
Can	-10.555
":[4,6,	-10.5551
":[51,54	-10.5579
ip	-10.5593
ast	-10.5609
":[9,11	-10.5622
":[81,8	-10.5637
":[74,77	-10.5639
ue	-10.5676
ED	-10.5699
":[15,17	-10.5717
":"000	-10.5731
":[14,15,16	-10.5733
,85]	-10.5736
6,	-10.5759
":[42,4	-10.578
":[61,6	-10.5784
▁al	-10.5797
,42]	-10.5799
":[5,7	-10.5814
store	-10.5827
,43]	-10.5837
,90]	-10.5843
,32]	-10.5848
bo	-10.5891
,57]	-10.5895
2,7	-10.5942
":[43,4	-10.5952
▁H	-10.5961
45	-10.5961
▁Be	-10.5962
ore	-10.5963
write	-10.5973
ex	-10.5982
":[49,5	-10.599
for	-10.5991
":[43,46	-10.6059
Format	-10.6062
SH	-10.6092
":[9,13	-10.6105
,27]	-10.6131
,24]	-10.6149
,36]	-10.615
mer	-10.6163
ful	-10.6217
":[16,2	-10.6231
j	-10.6232
SE	-10.6252
KE	-10.6279
unique	-10.6282
exception	-10.6283
elasticsearch	-10.6286
setU	-10.6291
2)	-10.6291
route	-10.6293
q	-10.6293
Address	-10.6305
completed	-10.6305
":[24,25,26]	-10.6305
redirection	-10.6306
Client	-10.6306
About	-10.6308
storage	-10.631
Metadata	-10.6313
Default	-10.6314
ALI	-10.6314
sleep	-10.6315
cloud	-10.6315
ASES	-10.6315
target	-10.6321
Framework	-10.6322
document	-10.6323
Transform	-10.6324
database	-10.6324
private	-10.6325
Version	-10.6325
sub	-10.6327
final	-10.6328
library	-10.6329
PACK	-10.6329
flag	-10.633
secret	-10.6331
tsaware	-10.6331
Shu	-10.6332
omponent	-10.6335
cache	-10.6336
async	-10.6337
SETTINGS	-10.6341
sqlalchemy	-10.6341
Resource	-10.6342
domain	-10.6342
relocate	-10.6343
":[65,6	-10.6343
stats	-10.6345
toolbar	-10.6346
":[94,9	-10.6347
Copy	-10.6347
platform	-10.6347
":[4,5,6]	-10.6348
,65]	-10.6351
problem	-10.6352
search	-10.6354
NA	-10.6354
Option	-10.6354
raises	-10.6356
Header	-10.6356
Output	-10.6356
256	-10.6357
DESCRIPTION	-10.6357
▁2015	-10.6358
adapter	-10.6358
numpy	-10.6359
plain	-10.636
ugettext	-10.636
distance	-10.636
Boolean	-10.6361
polyglot	-10.6361
framework	-10.6362
ensor	-10.6362
master	-10.6362
handy	-10.6363
exclude	-10.6363
Instance	-10.6363
ixin	-10.6364
standard	-10.6364
thread	-10.6365
product	-10.6365
initialize	-10.6366
LO	-10.6366
stocka	-10.6367
year	-10.6367
":[95,9	-10.6368
exe	-10.6368
▁collection	-10.6368
▁support	-10.6368
Adafruit	-10.6369
▁Date	-10.6369
APP	-10.6371
▁sub	-10.6371
▁repository	-10.6374
▁ID	-10.6374
▁Inc	-10.6376
multipl	-10.6377
ww	-10.638
dlibre	-10.638
▁clone	-10.6382
":[91]	-10.6382
":[100,10	-10.6382
etwork	-10.6384
":[84]	-10.6389
filters	-10.639
▁decrypt	-10.639
▁IN	-10.6392
sim	-10.6392
▁LED	-10.6393
pache	-10.6394
oge	-10.6395
seed	-10.6396
▁interface	-10.64
Device	-10.6401
▁library	-10.6402
env	-10.6406
mem	-10.6411
header	-10.6411
render	-10.6413
▁no	-10.6416
▁resource	-10.6417
POST	-10.6424
want	-10.6431
▁we	-10.6433
10	-10.6442
▁foo	-10.6445
property	-10.6451
rx	-10.6455
nTh	-10.6472
urlpa	-10.6472
▁text	-10.6479
▁python	-10.648
ash	-10.6482
▁local	-10.6482
▁tests	-10.649
hom	-10.6497
docs	-10.6536
ends	-10.6541
":[86,87	-10.6542
hex	-10.655
":[90,91	-10.6558
force	-10.656
-8	-10.6566
parser	-10.659
":[28,3	-10.6596
rval	-10.6601
ank	-10.6602
":[14,16	-10.6606
":[10,15,2	-10.6611
8,99]	-10.6616
hp	-10.6638
▁bot	-10.6641
AST	-10.6659
":[57,60	-10.6681
tu	-10.6686
parsed	-10.6688
clos	-10.6691
▁line	-10.6691
":[6,10,	-10.6698
,31]	-10.6699
▁key	-10.6723
▁modules	-10.6728
":[21,24,25	-10.6742
ia	-10.6742
":[46,49	-10.6744
,51]	-10.6746
":[55,58	-10.6746
▁vi	-10.6748
▁settings	-10.6764
":[15,16,17	-10.6783
▁2	-10.6783
gree	-10.6791
":[8,10	-10.6798
ven	-10.6831
,72]	-10.6855
hi	-10.6862
Is	-10.6904
su	-10.6916
27	-10.6917
max	-10.6934
ay	-10.6936
requests	-10.696
PRO	-10.6965
":[21,24	-10.697
":[11,13	-10.6975
OF	-10.6981
Gener	-10.6985
runners	-10.6985
opt	-10.7011
":[73,74	-10.7012
":[42,45	-10.707
my	-10.708
je	-10.7099
theme	-10.7101
ecorder	-10.7153
":[48,51	-10.7154
19	-10.7159
rt	-10.7175
MA	-10.7208
Process	-10.7216
▁all	-10.724
/<	-10.7256
":[37,39	-10.7296
":[7,12	-10.7298
,29]	-10.7311
":[59,6	-10.7345
.0"}	-10.7348
train	-10.7356
ro	-10.7368
ents	-10.7424
ft	-10.7428
▁IS	-10.7456
ess	-10.7472
updated	-10.7485
ybox	-10.7486
8,3	-10.7512
ty	-10.7519
":[17,21	-10.7537
":[8,13	-10.7563
":[1,3,5,7,9	-10.7566
":[51,5	-10.7566
ODU	-10.7586
La	-10.7589
appi	-10.7599
44	-10.7618
▁c	-10.7675
▁version	-10.7684
2.	-10.7723
":[4,	-10.7785
mb	-10.7789
▁F	-10.781
,50]	-10.7838
tr	-10.7838
40]	-10.7844
26	-10.7858
kippo	-10.7867
AT	-10.7879
Lo	-10.7894
,71]	-10.7927
30,33]	-10.7941
ING	-10.7955
▁'/	-10.7997
,35]	-10.8001
,62]	-10.8035
":[48,5	-10.8037
ark	-10.8039
":[4,6,1	-10.8043
ap	-10.8045
nsure	-10.8068
21	-10.8076
fin	-10.8079
cli	-10.8091
":[34,38	-10.8092
37	-10.811
▁plugin	-10.8117
,18]	-10.8134
Th	-10.8167
":[71,7	-10.8177
ys	-10.8203
46	-10.8215
UT	-10.8239
84]	-10.824
":[89,9	-10.827
▁U	-10.8322
move	-10.8325
,28]	-10.8335
rop	-10.8338
rd	-10.8359
▁O	-10.8365
sure	-10.8369
":[61,64	-10.8396
kit	-10.8404
nd	-10.8431
Co	-10.8478
wd	-10.8491
":[68,7	-10.8518
timed	-10.8521
ack	-10.8525
":[8,12	-10.8532
War	-10.854
09	-10.8555
ity	-10.8576
2.0	-10.858
,61]	-10.8583
ge	-10.8651
":[1,4,	-10.8677
2010-04-	-10.8679
IN	-10.8683
put	-10.8684
De	-10.8686
ver	-10.869
▁document	-10.8693
qual	-10.8704
rpc	-10.8726
subscribe	-10.8735
zmq	-10.8737
driver	-10.874
call	-10.8747
here	-10.8755
element	-10.8755
":[37,40,41,4	-10.8758
interface	-10.876
":[87	-10.8764
contain	-10.8767
runner	-10.8767
Medi	-10.8768
ame	-10.8768
theano	-10.877
▁simple	-10.8774
NO	-10.8779
jsonfield	-10.8785
dispose	-10.8787
dataObj	-10.8789
To	-10.8791
validators	-10.8792
Marker	-10.8794
input	-10.8795
direct	-10.8796
TRIBUT	-10.8805
label	-10.8806
ros	-10.8807
DIS	-10.8808
login	-10.8809
random	-10.881
ka	-10.881
suppress	-10.881
ROOT	-10.8811
Context	-10.8813
pygments	-10.8814
public	-10.8817
Integer	-10.8818
sqlite	-10.8818
help	-10.882
Docker	-10.8821
nodeEditor	-10.8821
encrypt	-10.8827
Channel	-10.8827
Recurrent	-10.8827
Whi	-10.8827
subscriber	-10.8828
):	-10.8828
SessionFactory	-10.8828
ACTION	-10.8829
TEMPLATE	-10.883
scope	-10.8831
abled	-10.8832
return	-10.8834
Merge	-10.8836
indices	-10.8836
Execution	-10.8837
pre	-10.8837
ible	-10.8837
Loop	-10.8839
weak	-10.8839
management	-10.884
wx	-10.8841
Wrappe	-10.8841
subdir	-10.8841
sets	-10.8842
Local	-10.8843
Exp	-10.8843
MockAction	-10.8844
":[11,12,13]	-10.8844
rotocol	-10.8845
Route	-10.8845
fetch	-10.8845
addresses	-10.8846
Search	-10.8847
trans	-10.8849
Trans	-10.8849
structure	-10.885
>[\\	-10.885
Enum	-10.885
math	-10.8851
Puppet	-10.8851
be	-10.8853
DEFAULT	-10.8854
statmaps	-10.8854
▁cou	-10.8854
Abstract	-10.8855
vault	-10.8855
human	-10.8856
":[2,3,4]	-10.8857
Bit	-10.8857
Redirect	-10.8859
Variation	-10.886
pagination	-10.886
sync	-10.8861
Documentation	-10.8861
MailMessage	-10.8862
>[	-10.8863
arcgis	-10.8863
transform	-10.8863
basic	-10.8863
ngo	-10.8863
imapfw	-10.8864
Debug	-10.8864
Bot	-10.8864
AUTHOR	-10.8864
22	-10.8864
ategorydecorator	-10.8865
ascii	-10.8865
msg	-10.8865
jpglitch	-10.8865
Linter	-10.8866
WSGIController	-10.8866
tcha	-10.8866
ymmetric	-10.8867
total	-10.8867
APIdocumentation	-10.8868
segment	-10.8868
success	-10.8868
related	-10.8868
Blog	-10.8868
CentralAuth	-10.8868
Environment	-10.8868
▁Browser	-10.8868
▁WARRANT	-10.8868
▁AUTHORS	-10.8868
▁number	-10.8869
▁also	-10.8869
found	-10.8869
▁rights	-10.8869
pay	-10.8869
▁information	-10.8869
eui	-10.8871
cloudferry	-10.8872
lantz	-10.8872
media	-10.8872
></	-10.8874
plug	-10.8874
▁does	-10.8874
Utilities	-10.8874
":[4,8	-10.8874
transmission	-10.8875
▁WITH	-10.8875
missions	-10.8875
▁Observable	-10.8875
▁getGlobal	-10.8875
controller	-10.8877
internationaliz	-10.8878
builtins	-10.8879
indexes	-10.888
":[1,3,5,7,1	-10.888
▁hot	-10.8883
neuro	-10.8883
▁distribute	-10.8884
reserve	-10.8885
1/	-10.8886
fixed	-10.8886
▁CLK	-10.8886
▁disposable	-10.8887
▁try	-10.8887
":[10,11,12,13]	-10.8887
▁git	-10.8891
>'	-10.8895
▁folder	-10.8898
▁work	-10.8899
▁here	-10.89
lask	-10.8902
Permission	-10.8902
itan	-10.8905
▁inst	-10.8906
▁so	-10.8911
ngagement	-10.8911
proc	-10.8912
▁parameter	-10.8921
{0}	-10.8922
▁database	-10.8924
FOR	-10.8924
":[45,48	-10.8928
▁console	-10.8928
▁like	-10.893
gain	-10.8938
You	-10.8941
conver	-10.8941
Titan	-10.8942
Down	-10.8943
term	-10.8943
▁non	-10.8947
No	-10.8957
▁Filter	-10.8965
▁case	-10.8965
BE	-10.8965
▁b	-10.8973
1000	-10.8974
Lt	-10.8976
,30]	-10.8995
once	-10.8997
▁form	-10.8998
based	-10.8998
▁instance	-10.901
▁URL	-10.9013
BAC	-10.9016
stop	-10.9023
events	-10.9033
▁NO	-10.9034
▁server	-10.9037
by	-10.9038
repos	-10.9043
ormalized	-10.9064
runtime	-10.9064
templates	-10.9074
":[5,	-10.9075
flo	-10.908
▁install	-10.9088
▁top	-10.9098
▁files	-10.9098
":[34	-10.9099
NE	-10.9102
▁5	-10.9106
ory	-10.913
roperty	-10.9134
1,3	-10.9134
ize	-10.9144
visit	-10.9158
":[13,17	-10.9169
":[26,27,28	-10.9181
":[54,57,5	-10.9183
Iterat	-10.9192
ations	-10.9195
if	-10.9196
":[6,	-10.9202
24	-10.921
prior	-10.922
2,43]	-10.9221
▁user	-10.9221
":[1,3,5,8,1	-10.9223
NOT	-10.9224
temp	-10.9228
writer	-10.9238
,47]	-10.9252
setattr	-10.9262
▁__	-10.9264
SD	-10.9267
▁de	-10.9274
7,65]	-10.9289
ND	-10.9309
,81]	-10.932
eather	-10.933
man	-10.9343
EST	-10.9343
▁B	-10.9365
getattr	-10.9375
\")	-10.938
":[6,1	-10.9383
ref	-10.9384
ice	-10.9387
,25]	-10.9389
attribute	-10.9391
▁D	-10.9421
":[17,2	-10.9428
24]	-10.9431
ical	-10.9432
":[12,2	-10.9438
var	-10.9449
":"0	-10.9459
scal	-10.947
sta	-10.9481
Un	-10.9492
,17]	-10.9498
idge	-10.9506
▁la	-10.9593
keys	-10.9619
ibility	-10.9681
▁global	-10.972
RN	-10.9728
aria	-10.9734
ized	-10.9744
":[33,35	-10.9748
enable	-10.9752
":[67,72	-10.9753
pa	-10.9758
":[8,12,6	-10.9763
▁edit	-10.9777
ILE	-10.9778
nternationaliz	-10.9799
,88]	-10.9804
lack	-10.9827
but	-10.9862
OUN	-10.9873
":[54,57	-10.9889
ust	-10.9892
▁rest	-10.9893
,22]	-10.9899
29	-10.9918
,79]	-10.9924
":[10,12	-10.9927
ult	-10.9938
exceptions	-10.9947
,26]	-10.997
▁get	-10.9978
3,78]	-10.9983
rovides	-11.0001
KIN	-11.0001
nA	-11.0002
MR	-11.002
▁)	-11.0022
,60]	-11.0044
est	-11.005
lue	-11.0077
":[80,8	-11.0078
▁L	-11.01
work	-11.0104
▁str	-11.0106
":[1,4	-11.0169
OR	-11.0172
▁int	-11.0186
21]	-11.0192
15	-11.0201
PR	-11.0201
":[91,94	-11.0206
▁set	-11.0216
,41]	-11.0222
":[29,33	-11.0223
":[23,26	-11.0233
Wea	-11.0252
":[28,29,30,31	-11.0266
ir	-11.0272
li	-11.0293
":[27,3	-11.0303
,92]	-11.0335
20]	-11.0363
ally	-11.0371
▁at	-11.0381
commands	-11.0405
▁g	-11.0432
54	-11.0447
▁di	-11.047
Form	-11.0482
thing	-11.0492
":[53,5	-11.0493
":[77,8	-11.0503
60	-11.053
OST	-11.0539
aining	-11.0548
,95]	-11.0554
nner	-11.0562
":[75,78	-11.0572
":[17,20	-11.059
recei	-11.0601
":"0.1	-11.0613
gram	-11.0625
▁update	-11.063
ping	-11.064
9,5	-11.0642
_"}	-11.066
":[64,67	-11.0663
":"(	-11.0663
con	-11.0664
Pr	-11.0682
co	-11.0699
,14,15,16,17,18	-11.0716
":[24,29,3	-11.0766
":"10	-11.0784
":[13,	-11.0829
nt	-11.084
":[14,15,16,17	-11.0873
35]	-11.0885
":[25,	-11.0888
easy	-11.0918
":[10,11,12	-11.0948
deEditorToolMenu	-11.0966
AS	-11.1013
":[18,22	-11.1029
":[6,8,7	-11.1051
ret	-11.1061
,12]	-11.1066
gov	-11.1107
ull	-11.1109
ce	-11.1122
permissions	-11.1125
":[53,56	-11.1128
43	-11.1128
save	-11.1141
ABLE	-11.1163
13]	-11.1164
ous	-11.1219
,64]	-11.1233
▁Py	-11.124
11	-11.1241
":[59,62	-11.1253
ow	-11.1297
":[5,8	-11.13
▁require	-11.1301
▁then	-11.135
3,25,27,3	-11.1354
bri	-11.1383
▁su	-11.1383
ri	-11.1385
An	-11.141
dc	-11.144
esult	-11.1442
":[29,32,33	-11.1456
":[40,41,4	-11.1475
":[12,18	-11.1485
▁add	-11.1506
7,28]	-11.1511
,14]	-11.1533
3,4]	-11.1534
---------------	-11.155
ware	-11.1551
":[1,4,6	-11.1556
":"0.0	-11.1596
so	-11.1612
ESS	-11.1615
cheduler	-11.1683
,74]	-11.17
ort	-11.1722
rmed	-11.1722
":[50,5	-11.1733
Py	-11.1749
":[19,20,21	-11.1759
8,49]	-11.1764
7,10	-11.1769
":[11,	-11.1769
36	-11.1774
ails	-11.1804
":[1,3,5,7,10	-11.1835
8\	-11.1871
":[56,6	-11.1874
":[37,4	-11.1876
":[7,11	-11.1889
▁0	-11.1902
▁valid	-11.1909
":[9,10,11	-11.1915
ica	-11.1927
54,60]	-11.1931
":[14,	-11.1996
ST	-11.2009
":[17,19	-11.2022
connect	-11.2031
Mo	-11.2036
lia	-11.2043
the	-11.2044
MAP	-11.2046
":[67,7	-11.2052
Stor	-11.2055
initial	-11.2058
cover	-11.2069
process	-11.2076
alculat	-11.2091
example	-11.2092
oslo	-11.2092
euro	-11.2093
User	-11.21
window	-11.2101
permission	-11.2103
wiki	-11.2105
Dialog	-11.2107
escape	-11.2108
Binary	-11.2112
us	-11.2112
struct	-11.2112
":[21,22,23	-11.2113
char	-11.2116
fixture	-11.2116
unpacker	-11.2117
":[33,4	-11.2122
symbol	-11.2123
CONNECTION	-11.2123
06	-11.2123
Host	-11.2124
Install	-11.2125
fun	-11.2125
dummy	-11.2127
simple	-11.2127
coll	-11.2128
DumperMarker	-11.2129
shell	-11.2129
Na	-11.2129
change	-11.213
folder	-11.2131
Contributor	-11.2132
mission	-11.2132
":[55,6	-11.2133
parameter	-11.2135
SIS	-11.2135
group	-11.2136
image	-11.2136
state	-11.2137
zeroservices	-11.2141
sudo	-11.2142
sidebar	-11.2144
emb	-11.2144
relbar	-11.2145
▁handl	-11.2145
page	-11.2146
OK	-11.2146
Info	-11.2148
▁definition	-11.2148
nalyzer	-11.2148
serialize	-11.2148
pow	-11.215
mapping	-11.215
napshot	-11.215
iddleware	-11.2152
vector	-11.2152
account	-11.2153
Constant	-11.2154
GafferArnold	-11.2154
Smartling	-11.2154
hash	-11.2155
empty	-11.2156
ick	-11.2156
Mediafile	-11.2158
Definition	-11.2158
spreadsheet	-11.2159
edu	-11.2159
asyncore	-11.2159
decrypt	-11.216
step	-11.216
API	-11.2161
power	-11.2162
SECRET	-11.2162
,48,49,50,51,52	-11.2163
BILITY	-11.2163
WSGI	-11.2163
Writer	-11.2164
Rx	-11.2165
mechanize	-11.2167
Box	-11.2167
something	-11.2167
LED	-11.2169
Token	-11.2169
eDoc	-11.2169
0,81,82,83,84,85	-11.2169
":[31,33	-11.217
TYPE	-11.217
Switch	-11.217
Sco	-11.2171
limit	-11.2172
":[17,18,19]	-11.2172
":[1,4,6,8,10,	-11.2172
pull	-11.2173
Email	-11.2174
olution	-11.2174
valid	-11.2175
hcpsdk	-11.2176
origin	-11.2177
Mmonit	-11.2178
CLASS	-11.2178
Global	-11.2179
actor	-11.2179
Multi	-11.2179
Document	-11.218
":[7,8,9]	-11.218
ython	-11.218
simulat	-11.218
35,38,39,4	-11.2181
Simple	-11.2181
HTML	-11.2182
Require	-11.2183
redirect	-11.2183
__	-11.2184
mplitude	-11.2184
tornado	-11.2185
Example	-11.2186
Stream	-11.2186
Scann	-11.2186
autodiscover	-11.2186
dynamic	-11.2187
incident	-11.2187
Terminal	-11.2187
Cluster	-11.2187
loc	-11.2188
":[4,5,6,7,8]	-11.2188
pie	-11.2188
sslmode	-11.2188
djopenid	-11.2188
OPTIONS	-11.2188
,52,59,6	-11.2189
Display	-11.219
dislike	-11.2191
catal	-11.2192
generic	-11.2192
GET	-11.2192
git	-11.2192
Toolbar	-11.2193
toolMenu	-11.2193
Project	-11.2193
Ssh	-11.2194
":[12,13,15,17	-11.2194
custom	-11.2194
hortcut	-11.2195
energy	-11.2196
shipping	-11.2196
":"1559	-11.2196
Tornado	-11.2196
separat	-11.2196
IndexAdapter	-11.2196
namespace	-11.2197
PageDown	-11.2197
indent	-11.2197
Mask	-11.2198
round	-11.2198
adeel	-11.2198
dilla	-11.2199
▁SOFTWARE	-11.2199
Missing	-11.2199
remainder	-11.2199
Encrypt	-11.2199
New	-11.2199
release	-11.2199
smartling	-11.22
raven	-11.22
":"0.1.0"}	-11.22
quote	-11.22
widget	-11.22
engine	-11.22
Sleep	-11.22
nP	-11.22
depth	-11.22
mongoengine	-11.22
":[1,4,6,10,1	-11.2201
Network	-11.2201
cards	-11.2201
ffffff	-11.2201
extensions	-11.2201
aerosol	-11.2201
0601"}	-11.2201
aintainer	-11.2201
Cobolt	-11.2201
":[31,32,33	-11.2201
cobolt	-11.2201
mirror	-11.2201
ulian	-11.2202
resolve	-11.2202
▁Content	-11.2202
▁software	-11.2202
2010-03-2	-11.2202
Energy	-11.2202
blinkled	-11.2202
dependency	-11.2202
▁Laborator	-11.2202
▁~~~~~~~~~~~~	-11.2202
▁DMS	-11.2202
▁OTHER	-11.2202
uantEcon	-11.2202
adafruit	-11.2202
▁Platform	-11.2202
2010-	-11.2202
▁configuration	-11.2202
▁scene	-11.2202
wikimedia	-11.2202
":"#0086	-11.2203
merge	-11.2203
activity	-11.2203
GPIO	-11.2203
Policy	-11.2204
gress	-11.2204
▁2014	-11.2204
mentation	-11.2205
Single	-11.2205
▁specified	-11.2205
BaseTest	-11.2205
identicon	-11.2206
▁notation	-11.2206
▁2012	-11.2207
▁Table	-11.2207
reverse	-11.2209
Read	-11.221
▁CON	-11.221
confi	-11.221
IES	-11.221
▁over	-11.221
▁obtain	-11.2211
▁MyTable	-11.2211
norm	-11.2212
download	-11.2212
Site	-11.2213
icolas	-11.2213
junos	-11.2215
`~	-11.2216
3,25,27,29,3	-11.2216
Upload	-11.2216
todo	-11.2216
router	-11.2217
▁YAML	-11.2221
conn	-11.2223
▁deleted	-11.2224
":[67,70,7	-11.2226
▁crypto	-11.2227
▁ea	-11.2228
▁construct	-11.2228
":"*.	-11.2228
lab	-11.2228
system	-11.2229
38,39,40,41,42,4	-11.223
ingle	-11.2231
odm	-11.2233
":[36,38	-11.2235
calable	-11.2235
chema	-11.2235
Storm	-11.2236
schema	-11.2236
images	-11.2236
zar	-11.2236
enum	-11.2237
SORT	-11.2237
1306	-11.2238
ight	-11.224
▁Ch	-11.2243
▁mapping	-11.2245
":[94]	-11.2246
▁provides	-11.2247
Block	-11.2249
TM	-11.2251
nterrupt	-11.2251
▁point	-11.2258
▁impli	-11.226
:`	-11.2261
▁templates	-11.2261
▁hid	-11.2263
sq	-11.2264
drivers	-11.2265
last	-11.2267
":[20,21,22	-11.2267
▁IP	-11.2276
generator	-11.2277
▁filters	-11.2279
▁R	-11.2283
▁K	-11.2284
onnection	-11.2287
CI	-11.2288
▁delete	-11.2289
ms	-11.2291
park	-11.2293
":[54,6	-11.2293
13,15,17,19,21,2	-11.2293
▁contributors	-11.2295
,89]	-11.23
2,55]	-11.2302
Alpha	-11.2305
npr	-11.2306
wtf	-11.2308
serializer	-11.2312
":[36,41	-11.2315
tables	-11.2318
PUT	-11.232
":[26,29,30	-11.2323
ments	-11.2326
links	-11.2327
":[1,4,6,	-11.2329
Del	-11.2329
Area	-11.233
7,32]	-11.2332
▁uid	-11.2336
outputs	-11.2338
":[12,13,14	-11.2339
▁Se	-11.2342
component	-11.2348
102,10	-11.235
▁betw	-11.235
Initialize	-11.2354
▁points	-11.2354
nCopyright	-11.2358
Vin	-11.236
versions	-11.2361
":[23,3	-11.2368
nPython	-11.2375
:[1,3,6,9,11,14,	-11.2378
notific	-11.238
yst	-11.239
ds	-11.2397
Library	-11.2398
":[10,14	-11.2404
":[88,91	-11.2407
nce	-11.2409
":[99,10	-11.2415
▁generate	-11.2429
":[59,62,63	-11.2432
curl	-11.244
▁url	-11.245
ski	-11.2453
nLicense	-11.2459
yes	-11.2461
CONT	-11.2462
Veri	-11.2465
":[47,51	-11.2468
services	-11.2468
▁0.	-11.2471
2010-04-1	-11.2471
31	-11.2473
let	-11.2478
▁</	-11.2479
tex	-11.2489
5,77]	-11.249
":[22,25,27	-11.2497
ssh	-11.2501
asc	-11.2512
itbucket	-11.2512
``.	-11.2516
":[36,40,	-11.2516
mass	-11.2522
gg	-11.2526
gre	-11.2529
7,50]	-11.2532
pres	-11.2532
Conv	-11.2535
▁read	-11.2535
flat	-11.2541
iper	-11.2542
ERS	-11.2544
ORT	-11.2546
nMa	-11.2548
ontainer	-11.2548
Are	-11.2548
ead	-11.2549
eng	-11.2554
":[28,31,32	-11.2568
":"%(	-11.2569
":[40,42	-11.2569
of	-11.2573
":[27,28,29	-11.2597
▁error	-11.2608
":[41,42,43,44	-11.261
Sp	-11.2611
Build	-11.2614
5,66]	-11.262
01	-11.2629
,13]	-11.2632
reduc	-11.2641
":"25	-11.2645
9,	-11.2655
":[11	-11.2663
repro	-11.2663
":[78,81	-11.2665
":[15,19,2	-11.2668
ab	-11.267
,51,61	-11.2676
▁logging	-11.268
ble	-11.2688
ber	-11.2689
":[54,5	-11.2696
2_	-11.2724
17,20]	-11.2725
ls	-11.2732
Message	-11.2743
":[4,6,2	-11.2747
3.	-11.276
1,62,63,64,65,66	-11.2766
▁they	-11.2773
▁thro	-11.2778
OP	-11.2779
iz	-11.279
,66]	-11.2812
▁Ber	-11.2839
ig	-11.284
,73]	-11.2849
rtex	-11.285
Discover	-11.2859
Assertion	-11.2861
pdate	-11.2886
tion	-11.2891
uta	-11.2894
tk	-11.2908
ational	-11.2926
lu	-11.2926
now	-11.297
6,28,30	-11.2981
corder	-11.2989
":[96,9	-11.2995
,96]	-11.2996
navailable	-11.3013
▁dis	-11.3019
,98]	-11.3031
31]	-11.3032
UR	-11.3034
":[22,3	-11.3036
":[2,4,1	-11.3072
":[66,7	-11.3077
ndent	-11.3093
▁item	-11.3095
em	-11.3103
sage	-11.3111
lse	-11.3112
publishe	-11.3125
":[21,26	-11.3155
▁.	-11.3175
ool	-11.3181
arameter	-11.3187
nc	-11.3211
33,36]	-11.3214
98]	-11.322
":[15,2	-11.3222
ELE	-11.3227
":[4,6,8	-11.3288
ef	-11.3331
).	-11.3348
":[19,21	-11.335
replaced	-11.3389
tFin	-11.3426
":[14,18	-11.3442
aved	-11.3446
":"1.	-11.345
kin	-11.3459
ension	-11.3461
Trav	-11.3467
":[20,22	-11.348
":[48,49,5	-11.3486
reg	-11.3499
":[81,84	-11.3506
vi	-11.3508
":[13,20	-11.3508
▁permission	-11.3522
Pe	-11.3543
,37,43,49	-11.3571
PRI	-11.3573
":[35	-11.3586
fixe	-11.3588
":[38,42	-11.3592
51,5	-11.3621
enuDefinition	-11.3651
23,26]	-11.3657
":[12,17	-11.3663
lide	-11.3668
ul	-11.368
pat	-11.3686
etup	-11.3699
/.	-11.37
":"1	-11.3717
":[46,49,50	-11.3724
,84]	-11.3725
GI	-11.3725
▁Mo	-11.3741
":[26,28	-11.3753
5,6]	-11.3754
ube	-11.3767
ot	-11.3774
nTest	-11.3778
CT	-11.3779
PER	-11.378
Fix	-11.3791
":"--	-11.3799
3_	-11.3828
cle	-11.3833
lash	-11.3846
Bi	-11.39
,19,20,21,22,23	-11.3905
":"0.	-11.3922
":[98	-11.3958
uthors	-11.3963
tm	-11.3973
MD	-11.4011
,70]	-11.4018
can	-11.4019
62]	-11.4039
22,2	-11.4052
ck	-11.4065
ree	-11.4066
":[37,42	-11.4104
,93]	-11.411
DF	-11.4142
":[4,6,6	-11.4148
Com	-11.415
3,74,75,76,77,78	-11.4172
over	-11.4183
AD	-11.4184
1,18,21,24,2	-11.4225
Models	-11.4241
":[28,	-11.4251
,75]	-11.4275
55,60]	-11.4277
.*	-11.4281
,11]	-11.4308
":[7,11,4	-11.4324
36]	-11.4343
7,30,3	-11.4351
":[16,	-11.4364
39	-11.4406
":[74,7	-11.4415
":[6,10,3	-11.444
4,17]	-11.4458
▁change	-11.4465
":[76,8	-11.4493
":[48,50	-11.4499
":[8,12,	-11.4539
":[6,10,2	-11.454
unt	-11.4548
block	-11.4609
ssed	-11.4611
PO	-11.4615
,59]	-11.4641
":[6,7	-11.4661
9"}	-11.4662
▁h	-11.4669
4,25,26,27,28,29	-11.4699
":[15,23	-11.4718
,15]	-11.4734
":[53,6	-11.4738
ming	-11.4772
":[27,	-11.4802
▁p	-11.4823
13,16]	-11.4824
ear	-11.4844
":[7,11,3	-11.4866
":[39,43	-11.4875
onic	-11.4888
":[69,72	-11.4907
2016	-11.491
AGES	-11.4916
":[26,	-11.4938
,30,31,32]	-11.4987
PAR	-11.5045
VI	-11.5049
,40]	-11.5064
▁pa	-11.507
51]	-11.5075
,49,5	-11.5095
fi	-11.5114
exp	-11.5158
MI	-11.5167
ON	-11.5222
ition	-11.5228
ifica	-11.5237
▁m	-11.524
,11,21,31	-11.5245
4,45]	-11.5266
fs	-11.5266
,69,7	-11.5283
tyle	-11.5311
":[26,2	-11.5314
":[36,3	-11.5342
000	-11.5343
tab	-11.5372
59]	-11.5423
":[24,29	-11.5431
lin	-11.5444
":[7,1	-11.545
.1"}	-11.5462
6,27]	-11.5499
ure	-11.5501
4,55]	-11.5505
discover	-11.5513
▁replace	-11.5513
3,44,45,46,47	-11.5514
":[63,66	-11.5519
globals	-11.5535
":[42,47,	-11.5562
":[1,3,5,7,11	-11.5603
80	-11.5606
83]	-11.5606
sp	-11.5613
▁page	-11.5617
":[13	-11.563
":[1,3,6,9	-11.5664
brow	-11.5674
#	-11.5679
▁Un	-11.5682
kw	-11.5695
▁Ru	-11.5701
42]	-11.5715
78]	-11.5743
":[57,6	-11.5767
,10]	-11.5774
iversity	-11.5789
34]	-11.5823
his	-11.5833
etadata	-11.5858
0,71]	-11.586
va	-11.5865
ec	-11.5868
":[23,	-11.5874
Cha	-11.5883
artic	-11.5891
Su	-11.5905
":[59,61	-11.5952
lat	-11.5971
":[88	-11.5995
contained	-11.5997
chi	-11.6151
ca	-11.6162
repr	-11.6177
,8,10,12,14,16,	-11.6208
":[11,16,2	-11.6221
":[18,24	-11.6237
ger	-11.624
oriz	-11.6263
":[23,28	-11.6281
ci	-11.6306
▁specifi	-11.631
TRA	-11.6312
ved	-11.632
35	-11.6321
9,1	-11.6332
":[7,11,2	-11.6333
Controller	-11.6347
stri	-11.6369
":[1,4,6,3	-11.6374
6,65]	-11.6385
▁inte	-11.6397
0,32]	-11.6404
Ti	-11.6412
Ex	-11.645
UP	-11.6473
,69]	-11.6484
ime	-11.6491
map	-11.6497
Tests	-11.6505
tor	-11.6519
tails	-11.6522
bra	-11.6545
8,61]	-11.6559
std	-11.6584
":[27,32,3	-11.6587
examples	-11.6596
8,	-11.6609
":[101,10	-11.661
,58,64	-11.6618
ization	-11.6629
mit	-11.6632
▁T	-11.6633
ICE	-11.6642
":"4	-11.6645
":[1,5,	-11.6651
ph	-11.6666
HO	-11.6683
mon	-11.67
Assignment	-11.6705
":[1,3,5,1	-11.6717
2,45]	-11.6735
":[12,13,1	-11.6744
":[19,	-11.6745
":[6,9	-11.6745
":[88,9	-11.6751
":[14	-11.6763
,52,5	-11.6773
▁BA	-11.6783
Sho	-11.6787
ence	-11.6794
":[1,4,7,10,1	-11.6799
":[35,	-11.6799
57,6	-11.6807
objects	-11.6821
54]	-11.6827
▁proper	-11.6836
":[1,3,6,8,1	-11.6842
":[92	-11.6843
ti	-11.6849
8,41]	-11.6854
":[31,34,3	-11.6874
[	-11.6886
erate	-11.6887
7,	-11.6888
▁assign	-11.6898
▁action	-11.6907
sort	-11.691
TH	-11.6924
not	-11.6925
RES	-11.6927
82]	-11.6935
79]	-11.6937
0,74]	-11.694
,79,8	-11.6943
polic	-11.6947
ect	-11.695
68,69,70,71	-11.6953
NG	-11.6957
58,59,60,6	-11.696
_201	-11.6971
tic	-11.6978
rgs	-11.6983
ocks	-11.699
▁pars	-11.699
imports	-11.6993
AGE	-11.6999
tf	-11.7005
lock	-11.7021
clone	-11.7022
":[33,34,35,36	-11.7024
Util	-11.7025
":[10,11,12,13	-11.7035
▁per	-11.7039
tou	-11.7042
ION	-11.7043
lint	-11.7047
mple	-11.705
rohibitSomething	-11.7054
approv	-11.7055
remote	-11.7059
":"12	-11.7068
BeforeRe	-11.707
41]	-11.7072
▁...	-11.7074
moval	-11.7082
Product	-11.7084
VALUE	-11.7085
erializer	-11.7085
3,16,19	-11.7087
medi	-11.7091
86,91,9	-11.7092
,43,50,5	-11.7092
filesys	-11.7093
rray	-11.7096
,62,63,64	-11.7096
global	-11.7098
Session	-11.7102
NSE	-11.7104
tings	-11.7105
":[47,48,49,5	-11.7106
":[6,8,	-11.7107
Code	-11.7107
▁except	-11.711
provider	-11.7111
compo	-11.7114
,80,8	-11.7114
Description	-11.7115
mode	-11.7119
1,99]	-11.712
,56,58,60,62	-11.712
":[81,85,9	-11.712
▁abo	-11.712
Doc	-11.712
Remo	-11.7121
":[61,64,6	-11.7122
▁help	-11.7122
handle	-11.7123
Variable	-11.7123
ucket	-11.7126
severity	-11.7126
exec	-11.7126
arser	-11.7126
Stats	-11.7128
quest	-11.7132
=2005	-11.7133
":[8,9,10,11	-11.7133
=2008	-11.7134
bug	-11.7134
jun	-11.7136
CaseDataset	-11.7136
website	-11.7136
▁variable	-11.7138
abstract	-11.7139
":[12,13,14,1	-11.714
whi	-11.714
":[24,37,	-11.714
expect	-11.714
14,24,27,35,46,6	-11.714
Before	-11.714
3,79]	-11.7142
CSVCase	-11.7142
footer	-11.7142
▁provide	-11.7143
ample	-11.7144
Engine	-11.7145
parti	-11.7146
Dataset	-11.7146
current	-11.7146
66	-11.7148
16_1	-11.7148
_201504	-11.7149
Deconv	-11.715
▁paramet	-11.715
multi	-11.7151
broke	-11.7151
YAML	-11.7151
developers	-11.7151
BatchNorm	-11.7151
DBCase	-11.7151
▁applica	-11.7152
GeneralizedCost	-11.7153
CATION	-11.7155
":"500	-11.7155
,29,31,33,35	-11.7155
posed	-11.7156
Indices	-11.7156
Web	-11.7156
web	-11.7157
76	-11.7157
,100]	-11.7157
lang	-11.7158
routin	-11.7159
distribute	-11.716
crypto	-11.7161
foreign	-11.7161
":[97,100,10	-11.7161
ProjectBuilding	-11.7161
impact	-11.7161
CLK	-11.7162
hron	-11.7162
Collection	-11.7162
DeepBi	-11.7162
▁Too	-11.7164
Pri	-11.7166
oreign	-11.7167
4,25,36,47,58,69	-11.7167
CHANGE	-11.7167
Database	-11.7167
insert	-11.7169
dec	-11.7169
":[22,23,24,25]	-11.7169
▁setting	-11.717
▁even	-11.717
21,28,35	-11.717
stock	-11.7171
tial	-11.7172
ephan	-11.7172
win	-11.7172
,47,53,59	-11.7172
storm	-11.7172
older	-11.7172
":[10,12,51]	-11.7173
Bran	-11.7173
intersphinx	-11.7173
bitbucket	-11.7173
tuple	-11.7174
MariaDB	-11.7175
3,46,4	-11.7176
characters	-11.7177
":[2,3,4,5,6,7	-11.7177
Adapter	-11.7177
shed	-11.7177
go	-11.7177
Off	-11.7177
TERN	-11.7177
middleware	-11.7178
delO	-11.7178
openob	-11.7178
ostgresql	-11.7178
17,20,23,26,29,3	-11.7179
8,50,52,54,56,58	-11.7179
99	-11.718
~	-11.718
1511	-11.7181
hot	-11.7181
member	-11.7181
Media	-11.7182
ync	-11.7182
business	-11.7183
▁simpl	-11.7184
":[39,41,4	-11.7184
ndscheduler	-11.7185
":[8,9,10]	-11.7186
icrosoft	-11.7186
Vault	-11.7186
modify	-11.7186
safe	-11.7187
activate	-11.7187
autodoc	-11.7188
dateCreated	-11.7188
":[7,13,19	-11.7188
AVER	-11.7188
Term	-11.7188
extend	-11.7188
Flo	-11.7188
Datastore	-11.7188
pyramid	-11.7188
MODEL	-11.7189
ertC	-11.7189
invocation	-11.7189
AP	-11.719
740362087	-11.7191
Dynamic	-11.7191
,19,21,23,25,27,	-11.7191
nnovative	-11.7191
ozea	-11.7191
Shipping	-11.7191
placeholder	-11.7192
▁easi	-11.7192
paramz	-11.7192
pyeqs	-11.7192
17,19,21,2	-11.7192
executable	-11.7192
phpcs	-11.7192
LU	-11.7193
▁rules	-11.7193
":[5,6,8,10,13,1	-11.7193
Alter	-11.7193
lean	-11.7193
drive	-11.7193
Response	-11.7194
TOO	-11.7194
▁compatibility	-11.7194
chron	-11.7195
269	-11.7195
_201506	-11.7195
Deep	-11.7195
wrappe	-11.7195
>=1.2	-11.7195
rimary	-11.7195
":"0.0.3"}	-11.7196
147591613	-11.7196
VALUES	-11.7196
amurai	-11.7196
firstdata	-11.7196
kipposearch	-11.7196
Home	-11.7196
CONNECT	-11.7196
FirstData	-11.7196
lorian	-11.7196
Ba	-11.7196
propert	-11.7197
HttpRe	-11.7197
SellarProblem	-11.7197
7,36]	-11.7198
10,19,21	-11.7198
itude	-11.7198
velope	-11.7198
":[105,10	-11.7198
▁exit	-11.7198
matrix	-11.7198
rancois	-11.7198
Request	-11.7199
odenomicon	-11.7199
scan	-11.7199
Polyglot	-11.7199
holds	-11.7199
.6.	-11.72
TIONS	-11.72
EVENT	-11.72
twisted	-11.72
18,20,22,24,26,3	-11.72
compatible	-11.72
ded	-11.72
COPYRIGHT	-11.7201
Decrypt	-11.7201
ified	-11.7201
0086	-11.7201
ounier	-11.7201
":[6,7,8,9	-11.7201
▁Postgre	-11.7201
▁Sebrecht	-11.7201
▁Simon	-11.7201
Alexand	-11.7201
":[1,3,5,11,19,2	-11.7202
ppmsc	-11.7202
~~~~~~~~~~	-11.7202
~~~~~~~~~~~~~~~	-11.7202
PageController	-11.7202
atsuo	-11.7202
2010-05-1	-11.7202
2010-06-2	-11.7202
2010-08-0	-11.7202
2011-03-	-11.7202
2016-01-01	-11.7202
DELETE	-11.7202
MediaMath	-11.7202
OneDriveClient	-11.7202
Visual	-11.7202
▁2015-04-	-11.7202
▁Wikimedia	-11.7202
▁conflict	-11.7202
▁equivalent	-11.7202
▁glim	-11.7202
▁ontology	-11.7202
▁queue	-11.7202
VTK	-11.7202
▁Parse	-11.7202
Moobot	-11.7202
▁expose	-11.7202
capabilit	-11.7202
FeedController	-11.7202
pipeline	-11.7202
hardlinks	-11.7202
HomeController	-11.7202
▁production	-11.7202
▁produce	-11.7202
▁Also	-11.7202
Settings	-11.7202
▁reblock	-11.7202
▁space	-11.7202
Extraneous	-11.7202
espm	-11.7202
PostController	-11.7202
▁reindent	-11.7202
SEED	-11.7202
TRACE	-11.7202
Phpcs	-11.7202
owner	-11.7203
▁defin	-11.7203
constraint	-11.7203
rj	-11.7203
":[57,60,61	-11.7203
Adam	-11.7203
▁2011	-11.7204
▁scr	-11.7204
automa	-11.7204
warning	-11.7204
ListCase	-11.7205
▁called	-11.7205
books	-11.7205
compat	-11.7205
":[27,29,31	-11.7206
NipapNo	-11.7207
suppressed	-11.7207
▁portion	-11.7207
iterators	-11.7208
desc	-11.7208
":[46,47,49,5	-11.7208
▁processing	-11.7208
▁original	-11.7209
espace	-11.721
▁Open	-11.721
try	-11.721
ode	-11.7211
disposable	-11.7211
YA	-11.7211
":[1,3,5,14,16	-11.7211
php	-11.7212
▁account	-11.7212
NS	-11.7213
ular	-11.7213
▁bare	-11.7213
":[21,22,23,24	-11.7214
tear	-11.7214
Sized	-11.7214
elp	-11.7215
01752	-11.7215
▁1.8	-11.7216
Coll	-11.7216
":[62,63,66	-11.7216
,34,41,4	-11.7217
pyweet	-11.7218
legacy	-11.7218
▁limitation	-11.7218
▁correct	-11.7218
▁Backend	-11.7219
▁catalog	-11.7219
▁encoding	-11.7219
▁deployment	-11.7219
▁graph	-11.7219
▁checkout	-11.7219
Topology	-11.7219
▁Busy	-11.7219
":[33,34,35,36]	-11.7221
Wiki	-11.7221
div	-11.7221
1,37]	-11.7221
cgi	-11.7221
,65,67	-11.7221
1,73,75,77,79,81	-11.7222
mod	-11.7222
▁l	-11.7223
,41	-11.7223
ffici	-11.7223
cation	-11.7224
▁La	-11.7224
logP	-11.7224
Gen	-11.7224
▁lasers	-11.7226
▁factoids	-11.7226
▁Tool	-11.7226
scen	-11.7226
":[86,87,88	-11.7227
TW	-11.7227
['	-11.7227
▁emails	-11.7228
STAR	-11.7228
▁Use	-11.7228
,33,34,35,36,37	-11.7229
Unit	-11.723
iceC	-11.723
rand	-11.7231
reporting	-11.7232
":[56,59,60	-11.7233
":[22,25,27,29	-11.7233
1,33,35,37,39,4	-11.7233
▁current	-11.7234
cap	-11.7235
seconds	-11.7236
:26	-11.7236
SION	-11.7236
recurs	-11.7238
quiet	-11.7239
Inference	-11.7239
bind	-11.7241
":[17,20,25	-11.7241
deep	-11.7242
ita	-11.7242
balancer	-11.7243
INF	-11.7244
chwank	-11.7244
ru	-11.7245
('	-11.7245
expe	-11.7246
construct	-11.7247
▁remote	-11.7248
▁Session	-11.7248
Hooks	-11.7249
":"0.2	-11.7249
hard	-11.7251
syn	-11.7252
Ada	-11.7254
abst	-11.7255
":[47,52	-11.7257
erUI	-11.7257
":[104]	-11.7259
▁web	-11.7261
▁reg	-11.7261
toto	-11.7262
bit	-11.7262
4.1"}	-11.7264
▁system	-11.7265
74	-11.7266
ITH	-11.7266
▁variables	-11.7267
perform	-11.7267
▁cop	-11.7268
▁accounts	-11.7269
▁empty	-11.7272
▁state	-11.7275
prefix	-11.7276
ENT	-11.7277
▁Smartling	-11.7278
":[12,14,20	-11.7278
▁Mediafile	-11.7279
":[33,37,	-11.728
▁nodes	-11.7285
adam	-11.729
equence	-11.7291
testDir	-11.7293
gin	-11.7293
=2	-11.7294
Fun	-11.7296
shallow	-11.7297
Contributors	-11.7297
groups	-11.73
ifor	-11.7301
▁clea	-11.7302
3,44,45,46,47,48	-11.7302
myapp	-11.7305
▁Id	-11.7306
▁pygments	-11.7308
▁random	-11.7308
LD	-11.7308
▁validators	-11.7308
report	-11.7311
Pre	-11.7311
140	-11.7312
:[38,41,42,43,44	-11.7316
":[10,14,	-11.7317
art	-11.7319
enge	-11.732
roduction	-11.7321
▁direct	-11.7323
▁...)	-11.7326
▁us	-11.7328
▁sleep	-11.7333
cat	-11.7335
▁my	-11.7335
▁Default	-11.7336
rating	-11.7338
▁Framework	-11.7338
":[43,46,49	-11.7339
":"0.1.	-11.7342
ra	-11.7344
▁char	-11.7344
68	-11.7345
idden	-11.7346
▁gen	-11.7347
▁stdout	-11.7348
":[11,12,13,1	-11.7348
▁reference	-11.7352
▁table	-11.7353
YS	-11.7354
funct	-11.7354
▁address	-11.7354
sdk	-11.7358
▁directory	-11.736
":[86,89	-11.7362
IMAP	-11.7363
▁display	-11.7368
oid	-11.737
55,5	-11.7371
▁installed	-11.7372
Grad	-11.7376
":[11,12	-11.7376
arker	-11.7376
":[42,43,44	-11.7381
nthe	-11.7385
":[38,41,42	-11.7386
▁cmd	-11.7388
▁src	-11.7396
ools	-11.7398
1.6	-11.7399
helpers	-11.7402
:%	-11.7402
alancer	-11.7407
this	-11.741
":[59,60,61	-11.7412
TUI	-11.7412
routing	-11.7415
ITE	-11.7416
▁3.1	-11.7417
2009	-11.7423
▁up	-11.7423
mapfw	-11.7434
▁Package	-11.7435
ialog	-11.7436
,53,54,55,56,57	-11.7436
rUI	-11.7436
arm	-11.7437
/*	-11.7438
▁translation	-11.7442
styles	-11.7444
1.1	-11.7449
))\	-11.7457
per	-11.7467
dk	-11.7468
tracker	-11.7474
cret	-11.7476
23]	-11.7479
nex	-11.7481
usi	-11.7484
":[40,41,48	-11.7499
":[58,59,60	-11.75
simplejson	-11.7509
onsole	-11.751
functions	-11.7511
writ	-11.7515
ATE	-11.7518
":[32,37	-11.7523
":[29,34	-11.7525
▁messages	-11.7525
":[1,3,6,8,10	-11.7528
▁level	-11.7543
feeds	-11.7544
Br	-11.7545
67,7	-11.7563
":[29,32,3	-11.7566
,39,44,	-11.7567
▁order	-11.7579
4,70]	-11.7583
special	-11.7595
han	-11.7601
":[32	-11.7605
▁array	-11.7606
":[1,4,13,	-11.7606
css	-11.7611
Conta	-11.7612
bytes	-11.7621
amp	-11.7623
▁show	-11.7625
▁node	-11.7634
60]	-11.7637
ax	-11.7639
▁un	-11.764
Cla	-11.7648
":[1,3,5,7,9,13	-11.7652
▁utilit	-11.7657
":[21,24,26	-11.7658
Testing	-11.766
":[16,20,2	-11.7667
RF	-11.7672
":[9,11,1	-11.7684
about	-11.771
gh	-11.771
non	-11.7715
▁container	-11.7735
4,	-11.7739
5,48,51	-11.7747
arch	-11.7752
\"><	-11.7774
etc	-11.7775
4,30]	-11.7784
":[101,104	-11.7787
38,41,44]	-11.781
":[57,61	-11.7818
tefan	-11.7825
89]	-11.7829
3,88]	-11.785
":[90,93	-11.7862
▁include	-11.7871
interval	-11.789
ero	-11.7894
runs	-11.7895
▁No	-11.7896
applications	-11.7921
DD	-11.7923
":[1,3,7	-11.7925
top	-11.7932
2,45,48,	-11.7944
":[29,30,31	-11.7945
ont	-11.7972
":[1,3,6,9,12	-11.7982
▁open	-11.7987
messages	-11.7998
antz	-11.8
BI	-11.8012
":[22,27,2	-11.8023
arb	-11.8025
fa	-11.8027
":[35,39,	-11.8041
ual	-11.8046
affe	-11.8072
▁Ha	-11.8084
als	-11.8086
strate	-11.8096
6,29	-11.8099
▁com	-11.8109
2.0"}	-11.812
":"11	-11.813
xxxxxxxxxxxx	-11.8135
▁Re	-11.8156
TOT	-11.8157
ture	-11.8159
ors	-11.8169
metr	-11.8171
)'	-11.8179
,27,28,29,30,31	-11.8181
16,	-11.8196
tPanel	-11.8213
Geo	-11.8218
7,30,33	-11.8223
ator	-11.8229
armer	-11.8246
anguage	-11.8256
":[35,36,37	-11.8257
PS	-11.8257
nAdd	-11.8258
":[20,21,22,23	-11.8273
":[67,68,7	-11.8275
":[77,	-11.8278
6,78,	-11.8281
▁en	-11.8305
ORS	-11.8336
.0.1"}	-11.8336
":[67,70	-11.8344
,101]	-11.8344
":[14,19,3	-11.8347
,8,9,10,11,12,13	-11.8386
":[15,22	-11.8396
,61,6	-11.8401
itware	-11.8423
ffer	-11.8433
7,67,7	-11.8439
trieval	-11.844
37]	-11.844
":[2,6	-11.8453
lpha	-11.8469
dis	-11.8479
9,11]	-11.8479
9,89	-11.8479
▁index	-11.8486
":[4,8,	-11.8488
assignment	-11.8489
32,	-11.8499
":[1,5,7,1	-11.8502
di	-11.8509
,43,51	-11.8515
,48]	-11.8524
5,36,37,38,39,40	-11.8527
":[13,15,24	-11.8546
plu	-11.855
native	-11.8559
▁pre	-11.8561
pec	-11.8561
106]	-11.8577
":[33,43	-11.8624
▁description	-11.863
,77]	-11.865
87]	-11.8672
":[12,16	-11.868
ServerName	-11.8698
":[22,23,24,2	-11.87
":[18,	-11.871
▁wo	-11.8711
":[27,31	-11.8714
tern	-11.8715
Run	-11.8716
":[32,35,3	-11.8736
tri	-11.8746
":[17,22,2	-11.8753
":[23,26,3	-11.876
":[13,14,15	-11.8784
kippose	-11.8787
DU	-11.8788
,54,60]	-11.8801
:[1,4,7,10,13,16	-11.8808
lease	-11.8848
0,51]	-11.8859
ada	-11.8862
Conf	-11.8877
▁part	-11.8903
Ap	-11.8903
16"}	-11.8913
":[26,28,3	-11.8913
6_	-11.8925
":[7,10,7	-11.8933
2.6	-11.8935
▁Scien	-11.8942
stdi	-11.8946
extra	-11.8966
":[11,13,	-11.8969
ackages	-11.897
OU	-11.8973
,58]	-11.8979
our	-11.898
":[53,58	-11.8981
":[43,46,4	-11.8988
ication	-11.9002
19,31]	-11.9019
▁LIAB	-11.9032
":"00	-11.9036
rence	-11.9041
88]	-11.9048
29]	-11.9052
,44,50]	-11.9059
▁compl	-11.9061
▁configur	-11.9076
,5,8,11,18,21,2	-11.9076
19]	-11.9082
si	-11.9098
ygments	-11.91
19,20,21]	-11.9128
6,54]	-11.9137
▁wa	-11.9138
cy	-11.914
aws	-11.9164
":[17,23	-11.9177
Cl	-11.919
":[30,31,32	-11.9212
9,54]	-11.9225
,55,60	-11.9229
90]	-11.9238
▁G	-11.9241
▁sen	-11.9242
,42,46,5	-11.9257
COR	-11.9267
DING	-11.9271
rain	-11.9274
orm	-11.9288
6,52]	-11.93
ToolP	-11.9304
":[36,39,4	-11.9362
▁setup	-11.9375
":[49,50,5	-11.9401
pk	-11.9405
▁Uni	-11.9407
ference	-11.9426
":[1,4,7,10,13	-11.9453
7,9,11]	-11.946
":[1,3,5,17	-11.9461
bus	-11.9469
WTF	-11.9476
jp	-11.9482
ISI	-11.9494
,10	-11.9496
":[41,49	-11.9498
":[80,83	-11.9505
swe	-11.9506
tA	-11.951
nto	-11.9511
entr	-11.9523
nModule	-11.9548
ake	-11.9557
":[8,10,7	-11.9561
gy	-11.9563
15,18]	-11.9567
▁Li	-11.9567
SceneP	-11.9578
":[16	-11.9591
▁person	-11.9603
":[29,32,33,3	-11.9608
,91]	-11.963
33	-11.9635
4,60]	-11.9641
Dis	-11.9669
Po	-11.9685
▁element	-11.9685
TOR	-11.9691
95]	-11.9701
▁attribute	-11.9716
Ke	-11.9718
5,80]	-11.9752
":[38,5	-11.9763
":[72,78	-11.9767
3,70]	-11.9773
{}/	-11.9807
Boo	-11.9813
lates	-11.9818
,87]	-11.9827
ctivation	-11.983
▁me	-11.9837
AR	-11.9855
▁override	-11.9872
":[15,20	-11.9876
ise	-11.989
▁django	-11.9908
110	-11.992
":[74,76	-11.9923
/\	-11.9933
ditable	-11.9938
BA	-11.995
uc	-11.9954
nitICE	-11.997
fruit	-11.9973
":"-	-12.0009
":[25,29	-12.005
":[1,3,5,7,9,	-12.0085
#1	-12.0085
Res	-12.0095
":[61,67	-12.0152
uthorize	-12.0168
49]	-12.0171
nice	-12.0175
false	-12.0192
Regist	-12.0196
el	-12.0223
remove	-12.0224
":[8,14,2	-12.0232
":[82,83,8	-12.0246
2,	-12.0255
,16]	-12.0278
nU	-12.0307
":[1,3,5,7,14	-12.0312
4,69,7	-12.0327
5,36]	-12.0339
77]	-12.034
eta	-12.0371
MAGE	-12.0382
5,7	-12.0393
":[26,30,	-12.0404
▁Ind	-12.0415
ype	-12.0499
#2	-12.0502
▁dele	-12.0528
spython	-12.0548
inline	-12.06
mt	-12.0601
":[22,26	-12.063
,49]	-12.0631
1,75]	-12.0631
4,67]	-12.0633
6,90]	-12.0663
":[13,15,3	-12.0699
building	-12.0699
cs	-12.072
":[30,35	-12.0724
,36,38,40,4	-12.0727
6,7	-12.0744
":[11,19,	-12.0747
▁201	-12.0767
3,56]	-12.0786
tur	-12.0797
rm	-12.0804
1,33]	-12.0816
27]	-12.0819
,18,20,22	-12.0834
":[1,3,5,8	-12.0845
":[79,84	-12.086
,20,32]	-12.0866
sl	-12.0892
,39,41,43,45,47,	-12.0899
433	-12.0921
yapp	-12.0945
▁SS	-12.0947
5,78]	-12.095
":[15,20,21	-12.0953
ste	-12.0984
":[10,	-12.0989
ection	-12.1011
rong	-12.1017
gument	-12.1024
":[35,4	-12.1024
changed	-12.1033
box	-12.104
7,55]	-12.107
busy	-12.1087
UN	-12.1091
td	-12.1092
ah	-12.1134
RU	-12.1163
▁i	-12.1223
2,25]	-12.1232
1,43,45,47,49,51	-12.1236
":[27	-12.1288
":[11,13,6	-12.1296
25]	-12.1317
2/	-12.1322
":[46	-12.1327
aps	-12.1327
7,41,5	-12.1333
47]	-12.134
ECT	-12.135
ction	-12.1352
,37	-12.1354
tate	-12.1357
02_	-12.1364
PP	-12.1372
,38,40,4	-12.1397
oad	-12.1403
RI	-12.1412
*"}	-12.1413
9,36]	-12.1414
":[72,74	-12.1438
":[62,66	-12.1445
AppCon	-12.1463
fig	-12.1474
▁w	-12.1492
Ev	-12.1508
5,26]	-12.1511
ie	-12.1519
ite	-12.1524
9,86]	-12.1533
92]	-12.1568
":[51,54,5	-12.1577
NT	-12.1583
2,36]	-12.1585
5,51]	-12.1596
oi	-12.1614
dent	-12.1627
epository	-12.1633
xxxxxxxxxxxxx	-12.1652
learn	-12.1697
CE	-12.1697
tod	-12.1721
":[65,	-12.1727
▁ar	-12.1728
ts	-12.175
":[52,54	-12.1803
108]	-12.1813
▁co	-12.183
ecipient	-12.1836
":[56,7	-12.1865
":[1,22	-12.1868
mo	-12.1877
']	-12.1878
▁format	-12.1894
":[72,75	-12.19
▁Model	-12.1901
im	-12.1925
":[11,16	-12.1925
,7,10,14,16,2	-12.1931
":[8,16	-12.194
":[1,4,7,1	-12.1958
,18,19]	-12.196
":[48,54	-12.1968
topolog	-12.1994
rocessor	-12.2027
nov	-12.2029
14]	-12.2057
▁remo	-12.2118
86]	-12.2141
":[13,15	-12.2142
Lis	-12.2145
":"004	-12.2156
130	-12.2186
ERSI	-12.2195
":[26	-12.2195
etrieve	-12.2251
,9,25]	-12.2259
dn	-12.2277
ruity	-12.2304
Edit	-12.2314
CD	-12.2315
rial	-12.2326
":[75,77	-12.2331
":[7,9,	-12.2343
":[34,	-12.2357
expan	-12.2369
6,34	-12.238
":[19	-12.2389
1>	-12.2394
pic	-12.2408
Gi	-12.2423
":[15,17,2	-12.2462
4,15,16,17,18,19	-12.2464
nuDefinition	-12.2477
itICE	-12.249
":[67	-12.2558
ain	-12.2559
Reg	-12.2567
ord	-12.2567
tan	-12.2604
67	-12.2607
vin	-12.2609
66]	-12.2635
attributes	-12.2683
26]	-12.2717
73]	-12.275
persons	-12.2758
":[6,10,1	-12.277
tly	-12.2771
fr	-12.2788
rts	-12.2808
":[95	-12.2821
--	-12.2823
,67	-12.2836
":[5,9,3	-12.2868
":[23,27	-12.2873
":[17,19,	-12.289
cost	-12.2895
":[18,20,2	-12.2896
▁En	-12.2914
,24,25,26	-12.2924
":[8,13,3	-12.2925
flas	-12.2929
86	-12.2944
0,91]	-12.2946
51	-12.2954
3,85]	-12.2987
NER	-12.2995
9,34]	-12.2997
":[1,4,6,8	-12.3005
,97]	-12.3023
rge	-12.3026
3,93]	-12.304
elements	-12.3041
▁exception	-12.3052
mma	-12.307
▁fr	-12.3071
33]	-12.3085
Activat	-12.3098
ik	-12.3099
,19,20,21,22	-12.3109
8,9	-12.3136
39,40,41,42,4	-12.3161
29,32]	-12.3164
Loc	-12.3172
▁re	-12.3194
":[15,19	-12.3214
nts	-12.3244
53	-12.3259
edits	-12.3262
44]	-12.3263
INGS	-12.3278
overrides	-12.3278
18]	-12.3279
":[15,25	-12.3319
ym	-12.3353
MS	-12.3361
opol	-12.3362
3,	-12.3405
":[15,20,2	-12.342
04	-12.3457
ook	-12.3464
nb	-12.3481
19,39]	-12.3511
names	-12.3512
":[21,3	-12.353
fie	-12.3547
":[19,24,2	-12.3551
":[10,14,2	-12.3562
▁LI	-12.3594
▁t	-12.3605
▁det	-12.3609
":[86	-12.3621
low	-12.3633
atch	-12.3662
":[23	-12.3685
gi	-12.3705
pted	-12.3728
ries	-12.3733
Generat	-12.374
10,11,12]	-12.3741
eak	-12.3771
12,15]	-12.3789
typ	-12.3796
":[10,16	-12.3806
▁runner	-12.3807
publish	-12.3811
17,18,19]	-12.3819
":[17,22	-12.3822
":[55,58,6	-12.3828
30]	-12.3829
50]	-12.3872
dr	-12.3901
HE	-12.3909
pas	-12.3922
▁1.	-12.398
34	-12.3986
trac	-12.4015
":[5,9,	-12.4027
":[46,49,5	-12.4029
0,37]	-12.4042
":[10,2	-12.4043
":[44,	-12.4046
ropo	-12.4073
":[22,25,2	-12.4091
ist	-12.4103
bu	-12.4104
46]	-12.4112
ning	-12.4135
ma	-12.4141
EC	-12.4144
39]	-12.4166
":[18	-12.4171
":[27,29	-12.4178
":[18,20,	-12.4182
":[1,3,5,8,	-12.4201
48]	-12.421
sent	-12.4221
.4	-12.4253
64	-12.4274
75]	-12.4283
--------------	-12.4297
5,31]	-12.4314
4,27]	-12.4333
":[9,14,	-12.4427
":[18,20	-12.4449
functional	-12.4449
▁parse	-12.446
":[90,9	-12.4503
IM	-12.4543
":[47,4	-12.4561
dded	-12.4568
":".	-12.4579
2,63]	-12.461
75	-12.462
sult	-12.4623
4,8	-12.4654
TF	-12.4663
":[9,12,1	-12.4664
8,9,10,11,12,13	-12.4664
60,6	-12.4689
":[13,2	-12.47
ights	-12.4719
items	-12.4764
nu	-12.4777
":[1,3,1	-12.4778
443	-12.4784
ding	-12.4796
pri	-12.4798
12,18]	-12.4815
Gra	-12.4817
":[8,14	-12.4844
2000	-12.4851
cript	-12.4853
7,42]	-12.4854
14,20,32	-12.487
ther	-12.4872
rize	-12.4881
6,80]	-12.4882
3,68]	-12.4888
":[11,15	-12.4906
2,14]	-12.4909
5,21,27,33	-12.4915
":[25	-12.4924
nger	-12.4935
du	-12.495
sw	-12.4956
Yu	-12.4957
disable	-12.499
":[12,15,1	-12.5015
":[7,	-12.5085
18,21,24,27,	-12.5096
UL	-12.5101
":[13,15,	-12.5105
TAL	-12.511
▁manage	-12.5112
6,97]	-12.5136
erman	-12.5137
▁script	-12.5171
":[1,3,7,9,	-12.5182
▁ex	-12.5184
":[13,14,15,16	-12.5194
csvc	-12.5206
":[42,	-12.5214
87,90	-12.5216
TE	-12.5221
10,13]	-12.5271
,34,40]	-12.5279
9,50]	-12.5283
":[29,30,31,3	-12.5304
▁res	-12.5306
anduse	-12.5355
32,37]	-12.5364
,13,15]	-12.5372
ud	-12.5386
":[4,8,8	-12.5388
":[1,3,5,7,14,	-12.5423
ee	-12.5436
hat	-12.5447
":[14,19,	-12.5451
":[57	-12.5473
methods	-12.5473
":[8,9,1	-12.5485
▁Dep	-12.5531
9,30]	-12.5535
":[78,81,	-12.555
":[19,25,	-12.556
▁app	-12.5575
,13,16]	-12.5605
▁Buil	-12.5607
▁se	-12.5668
SHO	-12.5683
▁ne	-12.5704
61]	-12.5706
▁inter	-12.5717
▁v	-12.5725
WA	-12.5742
8,80]	-12.5749
0,31]	-12.5778
22]	-12.5785
":[32,33,34	-12.5805
16,17,18,19,20,2	-12.5809
Dat	-12.584
%(	-12.5854
pip	-12.5865
▁build	-12.5875
ric	-12.5879
":[35,38,4	-12.5909
Tra	-12.5919
ha	-12.5933
":[17,18,19,2	-12.5972
Ver	-12.5975
FIE	-12.5986
":[1,4,7	-12.599
29,35,	-12.6012
▁20	-12.6032
Author	-12.6069
":[1,3,5,14,	-12.6071
":[59,62,6	-12.6094
":[1,5	-12.611
,99]	-12.6111
allow	-12.6118
0,60]	-12.6125
0,	-12.6135
cm	-12.6138
":"1.2	-12.6151
68]	-12.6165
":[28,33	-12.6171
44,54	-12.6172
og	-12.6176
nname	-12.6198
▁proce	-12.6211
":[51,56,5	-12.6228
69,7	-12.6237
dia	-12.6242
▁includ	-12.6247
It	-12.628
":[11,17,	-12.6299
4,79,84]	-12.6347
":[51	-12.6359
49,52,53	-12.6367
ug	-12.6374
6,68]	-12.6378
":[78,8	-12.6399
ated	-12.6416
,104]	-12.6421
03	-12.6433
-0	-12.6437
":[60	-12.6439
gration	-12.645
,107]	-12.6453
,9,11,16,	-12.6455
pplication	-12.6456
▁Al	-12.6456
34,43	-12.6457
53,54,55,56,57	-12.6467
43]	-12.6478
ate	-12.649
▁schedule	-12.6492
":[29,	-12.6497
91]	-12.65
pt	-12.6518
1,62]	-12.6522
96]	-12.6525
7,84	-12.6538
,102]	-12.6564
▁track	-12.6569
Initializ	-12.6571
":[22	-12.6576
5,54,6	-12.658
Send	-12.6584
tadata	-12.6595
009	-12.6617
Sequen	-12.6622
.3"}	-12.6657
ert	-12.6661
51,52,53,54	-12.668
/\">	-12.6693
tra	-12.6693
5,48]	-12.6702
7,83	-12.6718
2,70	-12.6719
TestE	-12.6742
cur	-12.6742
▁Auth	-12.6746
":[4,7,	-12.6748
9,102]	-12.6756
UB	-12.6776
pite	-12.6796
▁tool	-12.6803
":[20,3	-12.6813
▁pr	-12.6819
":[1,4,13	-12.6825
2,43,44,45,46,47	-12.6826
":[7,12,1	-12.6832
,43,49,55	-12.6841
021	-12.6845
1,63]	-12.6852
3,66]	-12.6858
▁Ve	-12.6859
4,63]	-12.6866
0,103]	-12.6869
63,68,7	-12.687
":[89	-12.6874
":[1,5,7	-12.6876
MO	-12.6882
36,37,38,39,4	-12.6884
▁them	-12.6887
2,37]	-12.6893
loo	-12.6909
":"100	-12.6916
istent	-12.6917
,4	-12.6934
script	-12.6945
,58,68]	-12.6951
secur	-12.6951
eField	-12.6965
gging	-12.697
▁----	-12.6973
8,73	-12.698
lines	-12.6983
ccept	-12.6983
notif	-12.6989
9,12,15	-12.699
eTime	-12.6993
Head	-12.6996
clean	-12.6998
▁qu	-12.6999
extension	-12.7005
":[12,14,2	-12.7008
outDir	-12.7009
50,51,52,53,54,5	-12.701
":[8,12,3	-12.7014
▁translat	-12.7016
hallow	-12.7017
":[1,3,5,7,67	-12.7026
Backend	-12.7031
7,70,7	-12.7032
08	-12.7032
Developer	-12.7034
50,5	-12.7035
29,31,3	-12.7036
,40,41,42	-12.7036
":[36,37,39,41	-12.7038
ctive	-12.7039
2,44,5	-12.7047
etho	-12.705
":[15,21,27,	-12.7053
eeds	-12.7056
,25,	-12.7058
▁creat	-12.7058
3,30]	-12.7064
roduce	-12.7065
27,30,36	-12.7068
scription	-12.7068
econd	-12.707
encoding	-12.7079
6,67	-12.7079
▁Control	-12.7079
pand	-12.7081
udo	-12.7081
repository	-12.7081
Too	-12.7081
83	-12.7085
0,51,5	-12.7088
21,31,4	-12.7089
0,93,9	-12.7089
74,75	-12.7097
":[72,73,7	-12.7097
VEN	-12.7098
59,61,6	-12.7098
Busy	-12.7098
":[1,3,10,1	-12.7098
setting	-12.7098
06-	-12.7099
bool	-12.71
onstraint	-12.71
86,87,88	-12.7102
xxx	-12.7105
Dump	-12.7106
WARE	-12.7106
Sha	-12.7111
rg	-12.7112
▁std	-12.7115
":[80,81,82	-12.7118
▁genera	-12.7119
7,8,9,10,11,12	-12.712
Provi	-12.7121
,34,40	-12.7123
,65,68,71,7	-12.7125
▁Erro	-12.7127
15,23,2	-12.7127
Editor	-12.7128
▁who	-12.713
Serial	-12.7132
deployment	-12.7133
egacy	-12.7134
stdout	-12.7134
7.0	-12.7135
,24,3	-12.7136
hanged	-12.7137
4,95	-12.7138
ws	-12.7139
VE	-12.714
Observable	-12.714
3,44,4	-12.714
33333	-12.714
,63,7	-12.714
▁factoid	-12.7141
▁laser	-12.7141
COPY	-12.7144
mq	-12.7145
consume	-12.7145
":[35,36,37,38	-12.7146
,37,44	-12.7146
,65	-12.7147
ymbol	-12.7147
ImageS	-12.7147
PA	-12.7148
ffff	-12.7149
gu	-12.7151
▁eff	-12.7151
11111	-12.7152
obtain	-12.7152
control	-12.7153
,64,66,	-12.7154
catalog	-12.7155
helper	-12.7155
container	-12.7156
icola	-12.7156
,8,13,1	-12.7158
yweet	-12.7158
correct	-12.716
2,35,38,4	-12.7161
MyTable	-12.7162
,30,36,4	-12.7162
futur	-12.7163
betw	-12.7163
builtin	-12.7164
graph	-12.7164
Django	-12.7165
5,68,71,7	-12.7166
invo	-12.7166
information	-12.7166
":[65,68,69	-12.7166
uiltins	-12.7166
Software	-12.7167
match	-12.7167
/017	-12.7168
▁option	-12.7168
checkout	-12.7168
71,72,73,7	-12.717
WITH	-12.717
quot	-12.7171
4,16,18,20,22,24	-12.7171
OpenI	-12.7171
▁secon	-12.7172
":[68,70,	-12.7173
kip	-12.7173
Table	-12.7174
62,63,64,65,6	-12.7174
Temp	-12.7174
▁operat	-12.7174
":[2,3	-12.7175
,7,9,11,1	-12.7175
you	-12.7175
42,47,	-12.7176
descript	-12.7176
esti	-12.7176
4,76,8	-12.7177
Uni	-12.7177
0,5	-12.7177
":"50	-12.7178
dataOb	-12.7178
28,29,30,31,32	-12.7178
▁appli	-12.7178
,72,73,74,75	-12.7179
issing	-12.7179
rigger	-12.7179
track	-12.7179
tool	-12.7179
Kit	-12.718
normal	-12.7181
▁shall	-12.7181
":[60,61,6	-12.7182
3,36,39,4	-12.7182
10,11	-12.7182
respon	-12.7183
VERS	-12.7184
Univers	-12.7184
monit	-12.7185
provi	-12.7185
Normal	-12.7185
NodeEditor	-12.7186
3,46,49	-12.7187
versati	-12.7187
anagement	-12.7187
Buildings	-12.7187
irectory	-12.7188
29,32,35,38,4	-12.7188
,15,16,17	-12.7188
copy	-12.7188
verag	-12.719
,48,51,54,8	-12.719
Mock	-12.719
ctivity	-12.719
24,37,	-12.719
,49,	-12.7191
88888	-12.7191
,5,6,7,8,9,10,11	-12.7192
Logge	-12.7194
":[72,73,74,7	-12.7194
,18,21,24,	-12.7195
back	-12.7196
AUTH	-12.7196
ublime	-12.7196
provides	-12.7197
rypto	-12.7197
Feed	-12.7198
":[1,3,14,	-12.7198
indow	-12.7198
ccounts	-12.7198
hannel	-12.7199
22,29	-12.7199
getGlobal	-12.7199
2012	-12.72
Custom	-12.72
NGEME	-12.72
evelopment	-12.7201
2,54,6	-12.7201
49,58,6	-12.7201
Centr	-12.7201
8,31,3	-12.7201
PLIE	-12.7201
ulate	-12.7201
44444	-12.7201
22222	-12.7201
":"#008	-12.7201
tific	-12.7201
onfiguration	-12.7202
place	-12.7202
▁Brow	-12.7202
,75,77,79,8	-12.7202
Something	-12.7202
aborat	-12.7202
▁descri	-12.7202
does	-12.7202
2011-0	-12.7202
CHAN	-12.7202
hcp	-12.7202
,17,20,23,2	-12.7202
,31,33,35,37,39	-12.7202
▁sche	-12.7202
▁fact	-12.7202
,32,38	-12.7202
plicat	-12.7203
rchT	-12.7203
THER	-12.7203
ompatibility	-12.7203
poly	-12.7204
voca	-12.7204
,33,36,39,4	-12.7205
.02	-12.7205
2010-0	-12.7205
Poly	-12.7205
alidate	-12.7205
elper	-12.7205
▁follow	-12.7206
2010	-12.7206
horiz	-12.7206
two	-12.7206
▁informati	-12.7207
▁vari	-12.7207
entral	-12.7207
ssible	-12.7208
direction	-12.7208
jpg	-12.7209
cture	-12.721
23,25,27,3	-12.7211
ILITY	-12.7211
-03	-12.7212
tail	-12.7212
ither	-12.7212
CSV	-12.7213
CLA	-12.7214
ctly	-12.7214
060	-12.7215
0.0.	-12.7215
ylons	-12.7215
Net	-12.7216
,35,38,	-12.7216
▁DE	-12.7216
ished	-12.7217
▁rein	-12.7217
8,29,30]	-12.7217
FFF	-12.7217
35,42,4	-12.7218
perm	-12.7219
unico	-12.7219
7:37	-12.722
deel	-12.7222
lowing	-12.7222
andora	-12.7222
raise	-12.7222
95	-12.7223
stHook	-12.7224
One	-12.7225
▁twi	-12.7225
andit	-12.7226
":[4,6,4	-12.7226
0.0.0	-12.7227
processing	-12.723
riation	-12.7234
▁serve	-12.7235
vol	-12.7235
▁stat	-12.7238
":[42,43,44,45	-12.7238
illa	-12.7241
izer	-12.7242
nted	-12.7242
BU	-12.7242
EAD	-12.7243
><	-12.7243
contribut	-12.7244
generat	-12.7246
General	-12.7249
Acce	-12.7249
distri	-12.725
alys	-12.7251
warn	-12.7252
lish	-12.7254
▁pip	-12.7254
deleted	-12.7254
rms	-12.7255
▁exa	-12.7256
1.8	-12.7258
▁COPY	-12.7261
nsor	-12.7261
cred	-12.7261
some	-12.7262
first	-12.7262
DISCO	-12.7268
,19,20,21]	-12.7269
intern	-12.7269
-15	-12.727
,55,57,	-12.7274
▁pref	-12.7276
,83,8	-12.7282
ates	-12.7283
1,82	-12.7284
disp	-12.7286
▁overr	-12.7289
▁2015-	-12.729
9,14,17	-12.7292
RA	-12.7293
▁DA	-12.7294
riv	-12.7294
ices	-12.7298
":[28,29,3	-12.7299
pace	-12.7299
64,70]	-12.7299
hand	-12.73
erBase	-12.73
rui	-12.7302
Bas	-12.7305
5,6,7,8]	-12.7306
▁IM	-12.7307
ign	-12.7315
▁lang	-12.7316
REA	-12.7317
▁tra	-12.7318
CM	-12.7319
tnames	-12.7321
▁subst	-12.7321
logic	-12.7322
ImageT	-12.7322
gical	-12.7324
valuation	-12.7324
▁qui	-12.7326
":[9,10,11,1	-12.7327
geo	-12.733
36,39,43,4	-12.7331
uture	-12.7331
▁map	-12.7333
WI	-12.7338
oolean	-12.7338
Produc	-12.7338
81,86,9	-12.7339
SV	-12.7345
TestI	-12.7347
▁Code	-12.7351
ceS	-12.7353
▁subm	-12.7356
▁Media	-12.7357
▁ph	-12.7357
▁mode	-12.7359
▁calle	-12.736
rary	-12.7362
":[78,81,8	-12.7363
Non	-12.7366
":[46,47,49	-12.7369
Cont	-12.737
tNode	-12.7371
▁handle	-12.7372
pect	-12.7373
dj	-12.7377
vir	-12.7383
dca	-12.7383
-20	-12.7388
Li	-12.7388
▁decorator	-12.739
#0	-12.7393
mand	-12.7399
RL	-12.74
uri	-12.7407
▁mapp	-12.7407
BR	-12.7411
":[39,	-12.7412
":[97	-12.7412
yn	-12.7415
▁initial	-12.7415
cent	-12.742
▁cr	-12.7421
nSe	-12.7421
▁permi	-12.7421
":[26,27,28,29	-12.7423
limitation	-12.7427
GP	-12.7429
verse	-12.743
":[22,	-12.7431
revis	-12.7432
lay	-12.7432
ncident	-12.7433
:37	-12.7436
mation	-12.7441
pr	-12.7441
Rev	-12.7442
▁Di	-12.7446
5,16,17,18,19,20	-12.7447
BS	-12.745
▁V	-12.745
second	-12.7451
ix	-12.7454
83,88]	-12.7454
▁em	-12.7457
hO	-12.7462
Utilit	-12.7465
OC	-12.7468
chars	-12.7468
tures	-12.747
embe	-12.7471
sym	-12.7472
ASS	-12.7472
602	-12.7474
▁RS	-12.7476
TP	-12.7488
▁coll	-12.7491
prop	-12.7494
Tit	-12.7495
SL	-12.7495
oter	-12.7496
tforms	-12.7499
,53	-12.7501
>.	-12.7507
10-	-12.7513
SG	-12.7517
Remov	-12.7523
▁imp	-12.7534
atastore	-12.7539
":[17,18,19,20	-12.7551
ctor	-12.7554
ecorator	-12.7562
RP	-12.7562
Du	-12.7567
nDe	-12.7575
rc	-12.7577
urn	-12.7588
▁po	-12.7589
ering	-12.7595
As	-12.761
olicy	-12.7613
9,50,51,52,53,54	-12.7614
stics	-12.7622
ze	-12.7627
wb	-12.7629
▁down	-12.7637
mf	-12.7656
7,68,7	-12.7662
>2	-12.7667
ixe	-12.7673
apid	-12.7679
TestS	-12.7699
cel	-12.7717
":[28	-12.7719
▁acc	-12.7719
cke	-12.7726
43,44,45,46,	-12.7737
▁sha	-12.7749
":[12,	-12.775
▁Blo	-12.7755
Open	-12.7756
har	-12.7757
witch	-12.776
▁Con	-12.776
erry	-12.7782
ivision	-12.7783
pers	-12.7813
PU	-12.7816
Prop	-12.7821
dat	-12.7824
▁built	-12.7858
▁check	-12.7875
▁du	-12.7879
js	-12.7882
ered	-12.7885
bare	-12.7888
nUn	-12.7903
fini	-12.792
":[1,3,6,	-12.7933
reat	-12.7937
":[46,4	-12.7944
cond	-12.7955
near	-12.7957
apin	-12.7962
▁av	-12.7962
▁Ver	-12.7974
▁Ale	-12.7976
strings	-12.798
▁TO	-12.799
▁out	-12.7991
aniz	-12.7994
":[18,19,2	-12.7994
vers	-12.8007
":[57,	-12.801
74,79,84]	-12.8015
col	-12.802
ring	-12.802
fc	-12.8022
3,16,19,22,25	-12.8032
BUT	-12.8044
_2015	-12.8055
rsa	-12.8068
3,5,8,11,18,21,2	-12.8088
umb	-12.8092
pid	-12.8098
▁`	-12.8101
▁o	-12.8101
cT	-12.8111
Schw	-12.8116
▁pro	-12.8118
nfor	-12.8119
":[17,	-12.8129
17,18,19,20,21]	-12.8134
":[16,18	-12.8147
aneous	-12.8165
":[51,56,58	-12.8172
ces	-12.8174
ders	-12.8174
ecs	-12.8177
npack	-12.8178
":[27,2	-12.8183
nly	-12.8183
▁names	-12.8219
Mis	-12.8228
":[46,47,48	-12.8233
nI	-12.8239
egex	-12.8241
unner	-12.8253
":[17,19,2	-12.8268
":[22,23,24	-12.827
Ga	-12.8274
ists	-12.828
tL	-12.8288
CP	-12.8296
▁De	-12.8297
":[14,18,	-12.8301
ness	-12.8305
itte	-12.8308
":[10,15	-12.8312
29,30,31]	-12.8322
":[31,	-12.8343
num	-12.8347
fileController	-12.835
":[44	-12.8355
nEx	-12.8366
▁repo	-12.8377
TA	-12.8378
rint	-12.8379
▁too	-12.8382
":[57,58,59	-12.8397
nK	-12.84
ac	-12.8411
Cons	-12.8428
fan	-12.8444
▁rev	-12.8465
":[42	-12.8492
eG	-12.8495
▁sp	-12.8513
ple	-12.8522
,30,38	-12.8526
nable	-12.8541
rar	-12.8552
Di	-12.8553
":[36	-12.8558
xxxxxxxxxxxxxx	-12.8562
identic	-12.8579
appen	-12.8583
":[64	-12.8583
CA	-12.8619
▁itera	-12.8638
ument	-12.8638
▁iterat	-12.8641
1.2.	-12.8656
Date	-12.866
aut	-12.866
.6	-12.8673
▁process	-12.8684
era	-12.8689
▁validat	-12.8693
Id	-12.8701
CES	-12.8706
pi	-12.8758
6"}	-12.8776
Clea	-12.8783
eError	-12.879
orted	-12.8795
17]	-12.8806
ave	-12.8838
erat	-12.8839
":[8,10,	-12.8851
ging	-12.8856
":[12,13,14,15	-12.8862
":[53,54,55	-12.8896
▁Ta	-12.8915
44,45,46,47]	-12.8931
ba	-12.8932
73,74,7	-12.8935
WAR	-12.8979
attrib	-12.904
▁email	-12.9065
":[17,18	-12.9076
etL	-12.9077
":[13,15,2	-12.9079
":[55	-12.9096
iscovery	-12.9122
▁Test	-12.9129
▁Base	-12.9149
,7,24]	-12.9152
":[8,9,15	-12.9171
-09	-12.9184
fte	-12.9186
16]	-12.9217
":[31,34,35	-12.9222
culat	-12.9245
CS	-12.9269
":[1,3,5,14,2	-12.9275
bran	-12.9277
ew	-12.9278
cst	-12.9286
8,50]	-12.9326
nIn	-12.9331
llows	-12.9331
2,65]	-12.9359
":[24	-12.9366
▁load	-12.9411
":[50,51,52	-12.9413
":[32,	-12.9442
implie	-12.9443
raph	-12.945
":[15,	-12.9471
hm	-12.9495
25,40]	-12.9497
eAction	-12.95
nodes	-12.9557
▁gra	-12.956
":[22,23,2	-12.9573
fore	-12.9578
TRAC	-12.9579
":[87,	-12.9614
ict	-12.9615
5,60]	-12.9616
":[1,4,6,8,1	-12.9618
▁rea	-12.9629
iber	-12.9655
tz	-12.9669
nding	-12.9693
▁te	-12.9749
47,58,6	-12.975
,94]	-12.9752
4,37]	-12.9753
":"20	-12.9768
IV	-12.9786
ean	-12.9787
12.	-12.9788
kippoi	-12.9794
apper	-12.9798
,7	-12.9804
▁specifie	-12.9854
":[43,48	-12.986
ora	-12.9944
15,21,27,33	-12.9957
FA	-12.9958
▁st	-12.997
criptL	-12.9974
73,78]	-12.9974
ss	-13.0005
7,18]	-13.0016
pm	-13.0043
part	-13.0056
70]	-13.0072
md	-13.0086
27,32,36	-13.0106
▁integ	-13.0111
IMA	-13.014
Rege	-13.0148
ub	-13.0152
nomi	-13.0159
6,8,10,12,14,16,	-13.0223
":[24,	-13.0231
":[14,15	-13.0253
urs	-13.0295
ures	-13.0296
ache	-13.0316
archi	-13.0338
ssions	-13.0343
etting	-13.0367
retriev	-13.0377
▁impl	-13.0389
late	-13.0416
gro	-13.0464
stra	-13.0478
0,21]	-13.0479
ho	-13.048
▁fl	-13.0482
5,8,11,18,21,2	-13.0532
cr	-13.0533
passw	-13.0545
por	-13.0547
4,25]	-13.056
":[96	-13.0564
70	-13.0587
▁con	-13.0601
,2	-13.0631
,7]	-13.064
/\"	-13.0662
nM	-13.0686
":[33,34,35	-13.0695
":[13,17,	-13.0747
ux	-13.0772
ndes	-13.0896
":[56,	-13.0906
nRe	-13.091
":[16,20,	-13.0914
9,10,11,12]	-13.0988
opens	-13.1028
":[61	-13.1049
ine	-13.1097
7.	-13.1151
":[11,16,3	-13.118
Me	-13.1268
are	-13.129
ali	-13.1316
7,68	-13.1329
38]	-13.134
":[14,2	-13.1343
29,30,31,32]	-13.1405
8,33]	-13.1425
":[15	-13.1504
1,22]	-13.1509
":[1,4,6,1	-13.1521
3,26]	-13.1569
":[40,41,42	-13.1609
3,25,27,	-13.1624
IE	-13.1631
34,36]	-13.1656
Ch	-13.1694
,11	-13.1701
2,97]	-13.18
1,44]	-13.181
8,73]	-13.1813
9,76]	-13.1878
4,35,36,37,38,39	-13.1883
versity	-13.194
etC	-13.1958
pu	-13.2023
--------	-13.2049
iltered	-13.2056
,20,25]	-13.2134
ssl	-13.2157
":[62	-13.2158
15,31]	-13.218
▁hi	-13.2187
":[56,5	-13.2194
\"	-13.2195
tin	-13.2198
MOD	-13.2245
ious	-13.2394
rowse	-13.2416
rrupt	-13.2432
IT	-13.2442
do	-13.2459
102	-13.2507
mis	-13.2538
":[45	-13.2588
":[1,4,7,	-13.2589
_2	-13.2625
▁Y	-13.2686
rking	-13.2734
sell	-13.2737
6,7,8]	-13.2743
,9]	-13.2823
met	-13.2942
▁id	-13.3019
Col	-13.3035
":[1,3,6,1	-13.3133
,83]	-13.3238
":[1,3,5,7,9,1	-13.3261
gr	-13.3379
":"2	-13.3438
15,17]	-13.3449
":[1,3,5,9	-13.3575
":[12,16,	-13.3601
▁Ar	-13.369
":[85,88	-13.3732
▁va	-13.3801
":[63,68	-13.3849
,5	-13.3851
ju	-13.3913
,41,60]	-13.3942
920	-13.3991
af	-13.4
nin	-13.409
Spa	-13.4103
av	-13.4115
EditorToolMenu	-13.4116
24,30]	-13.4173
lis	-13.4175
":[1,3,6,9,	-13.4202
NFI	-13.4251
mary	-13.4275
":[8,13,	-13.4285
30,31,32]	-13.4289
nti	-13.4317
":[38	-13.4343
6,87]	-13.4365
nat	-13.4402
ower	-13.4404
9,39]	-13.4441
9,31]	-13.4452
FF	-13.451
":[2,6,	-13.453
,11,21,31,	-13.457
":[27,30,3	-13.4605
,10,72]	-13.4649
▁test	-13.473
Ref	-13.4761
appl	-13.4787
,67,	-13.4824
72]	-13.4881
RR	-13.4887
17,19]	-13.5002
yle	-13.5007
":[8,12,2	-13.5027
41,44]	-13.5035
GO	-13.5095
IC	-13.5227
1,12]	-13.5234
11]	-13.526
":[19,23	-13.5295
RM	-13.5345
sou	-13.5478
17,18]	-13.5533
dio	-13.5577
regi	-13.5635
":[1,4,6,8,	-13.5664
lists	-13.5664
ur	-13.5684
ress	-13.5735
▁Pa	-13.5749
▁ch	-13.5892
":[6,8,2	-13.5967
nal	-13.608
iss	-13.615
ART	-13.6184
":[13,16,	-13.6279
":[30,34,	-13.6319
,34,36]	-13.6333
▁ass	-13.6344
32]	-13.6401
